
/**
  ******************************************************************************
  * @file    network_1653745682126_data.c
  * @author  AST Embedded Analytics Research Platform
  * @date    Sun May 29 15:30:47 2022
  * @brief   AI Tool Automatic Code Generator for Embedded NN computing
  ******************************************************************************
  * @attention
  *
  * Copyright (c) 2021 STMicroelectronics.
  * All rights reserved.
  *
  * This software is licensed under terms that can be found in the LICENSE file
  * in the root directory of this software component.
  * If no LICENSE file comes with this software, it is provided AS-IS.
  ******************************************************************************
  */
#include "network_1653745682126_data.h"
#include "ai_platform_interface.h"

AI_API_DECLARE_BEGIN

AI_ALIGNED(32)
const ai_u64 s_network_1653745682126_network_1653745682126_weights_array_u64[ 109341 ] = {
  0x3da032d63cd00facU, 0x3e2bd0143e412b60U, 0xbd7806cdbd558cd9U, 0xbd99b1133e16d815U,
  0x3de61606bdb44359U, 0x3e0a7bf5be1359fdU, 0xbd80bad03e17600bU, 0xbdcfd48b3d6274a9U,
  0xbdfc0ed3be4d77a0U, 0xbac6b6ce3d7c4373U, 0x3df40a003e0bdf2dU, 0x3d965cbabc9de117U,
  0xbdba4e38be11cb8dU, 0x3d13dd20be06a1e9U, 0xbdeed4d1bcf1ddebU, 0x3db1cfef3d0270afU,
  0x3e5d0b3dbd40e354U, 0x3dd792c9bdb5a82cU, 0x3dddb3503befab9dU, 0x3d0f2d0b3df0c52cU,
  0x3e028b1dbdd8521eU, 0x3c309d943d9ac26aU, 0xbdf56bf93cfe21beU, 0x3d8bb51bbd5439feU,
  0x3c2b8b66be51ebf3U, 0xbe33beb4be104414U, 0xbd7bd663be351ca8U, 0xbe34eeedbc5ea90cU,
  0x3dc6a0ff3d354884U, 0x3d50352d3d14512eU, 0xbde93ea53e04f048U, 0xbdc669183dc7e031U,
  0x3c025588bcd1f12dU, 0xbe2815893d551038U, 0x3e1563e63d09b7dcU, 0xbd6a24a93cba74a5U,
  0xbca4310bbd7d2b34U, 0x3d20d5b0bd9f1827U, 0x3d569eda3d435187U, 0xbd81f3583dfe0629U,
  0xbd7e801f3dcac79dU, 0x3d15c8303e1e1a11U, 0x3c479b783e1ebdf5U, 0xba9005263e10aa45U,
  0x3cf6ae583e3821b4U, 0xbe8ebc87be31bff9U, 0xbe5ccb5ebe6a7b35U, 0xbe5d0246bde2b705U,
  0xbe585997bda3f517U, 0xbd22ae29bdcadb03U, 0xbe81128abd91fe44U, 0xbe5f9788be105029U,
  0xbdf680c0bd99e76cU, 0xbb237d33bc548d94U, 0x3de0198d3d221b30U, 0xbe03a895bdc498eaU,
  0xbd6238cbbd3ee25cU, 0xbced5fe33c79d12cU, 0xbcff39a93b4f4dd3U, 0x3afb4ef83e03e3d8U,
  0x3dbde3e93c54f6e6U, 0xbdf503213cd12683U, 0xbc864ada3d02e668U, 0x3dea54833d0644e7U,
  0xbe0f3b9bbdeca054U, 0xbdfb9b953dd33638U, 0x3df184cf3cb57e69U, 0xbd18f4dabdb38025U,
  0xbdf6311bbe18034cU, 0xbcab3894bd148b89U, 0xbdc74ce73e0c951aU, 0x3ddc1686be0c6f0cU,
  0xbd30d5293d1ab53fU, 0xbdae4c4dbdd3947eU, 0xbcf63445be1037b7U, 0xbd22812abda7cef8U,
  0x3d85e5713e04f0b1U, 0xbe1c1cc63c25c35aU, 0x3cd29830be5b4234U, 0xbe1316c93e298224U,
  0x3e01a397bdc9e9fdU, 0xbd1d69d9bd391e62U, 0x3daca4bdbdd67e08U, 0xbe39b7563d8657ccU,
  0x3dac63c83e2063c9U, 0x3e08123ebe191884U, 0xbd7dcbb7bd6c7933U, 0x3d9c8ee63c85624bU,
  0x3e3f2f10be09790fU, 0xbe4aee773e3e5e54U, 0x3d13018fbbbcf7b7U, 0xbe150058bde3a1d9U,
  0xbd3233c8bd2a954dU, 0xbdbbe58dbda9e797U, 0xbe00bcbdbdd31cb0U, 0xbe172b76bbb10402U,
  0xbe658ccabe4337c2U, 0xbc7a8ce3be4ba947U, 0xbe07787ebda7d197U, 0xbe122de53d931adcU,
  0xbdcd4a51be575c99U, 0xbb870a643e298422U, 0xbc82756dbe1396bbU, 0xbe30630e3d7a9dd5U,
  0xbe6431f2be67c305U, 0x3cc045babe23e024U, 0xbe23987a3d8aeeddU, 0x3c9e0db53e0104fbU,
  0x3d11b946bdecc526U, 0xbe078cd0bd53334cU, 0x3da1e2aebdab9143U, 0x3dee754d3d19ad3aU,
  0xbe15d59a3e2d686fU, 0x3d7f6c373c80caedU, 0x3dbdacba3d8bf758U, 0xbda5c1ea3ddb54e5U,
  0x3da45fb33d889ed7U, 0xbd326da5bdfe0b1bU, 0x3d4793743da0bb86U, 0xbdd6bb4ebe496871U,
  0xbe465dbabe343bf2U, 0xbdeb064a3db1ddbaU, 0xbd4ea83dbd61ec92U, 0x3cd92dbcbe2a80c1U,
  0xbc8d65593cfc3478U, 0xbe0bd65f3d5501d7U, 0xbdc0c07b3d9e0008U, 0x3b05c3eb3dab131bU,
  0xbc1f0c1cbd916f99U, 0xbdb16518bcc5dc1cU, 0xbe00d966bdb0a3c0U, 0x3db7ca03be29f731U,
  0xbe34d5b63db26aeaU, 0xbdbed8423da6f329U, 0x3d14d289bdaf8407U, 0xbd82726abd2414f9U,
  0xbe3ca48cbdd999a3U, 0xbdd47253bdfbe675U, 0x3d3861cc3dda1d2aU, 0x3d75af693e214525U,
  0xbde24349be52859bU, 0xbc8e9a9bbd88c6b7U, 0x3e09a245bd5065fdU, 0x3db9e4c43c434ab7U,
  0xbdc052d33d8908edU, 0xbdc81d5fbd8655b6U, 0x3dfd76b43c66c594U, 0x3de96fe23c9fbc46U,
  0x3d1354223e520d83U, 0x3dbdaeccbe0005e6U, 0x3aff2c1fbcba7d02U, 0xbdb942f6be25ed2bU,
  0x3d1cef15bdb99b1bU, 0x3e00979f3c922da4U, 0xbe010bee3e3b3d38U, 0xbdef61cfbe41da52U,
  0xbdb4def9bb9764b7U, 0x3de7a6963e0a5072U, 0x3e6b25b4bc4b4e2aU, 0x3cf46930bde306d3U,
  0xbd9ee83fbd184195U, 0x3daf0bb43dec29abU, 0x3dff592e3da649aaU, 0xbb8702e8bd061c3fU,
  0x3cccfb673df2c0ccU, 0x3de01aeebdf93a40U, 0x3d912573bd75eb5dU, 0x3e07ba6e3e2ed08fU,
  0x3e21dd8b3d59a3ddU, 0xbde0c9b83dfc4969U, 0xbde4c91b3d73a765U, 0xbdad634ebe10b74fU,
  0xbdd579c53e0a7419U, 0xbd8c8537bdb2a96fU, 0xbdf32d66be274056U, 0xbd9fcd73bde0cdd6U,
  0xbe25024bbe421154U, 0xbdbcd5f9be4a9cfdU, 0xbcb8daefbce9314dU, 0xbe2023d7bc2dcd57U,
  0xbd1653073dabe029U, 0x3de8365cbc6cb936U, 0x3e0e27a53e11e0d6U, 0xbd451f873d6936deU,
  0xbd8b47bb3d80e35cU, 0x3e0b12473e2398a8U, 0x3d9aee593e001527U, 0x3cedca153dd13667U,
  0xbd0e7f09bdd13414U, 0x3c80cdd53e51a487U, 0xbde33c343e0a8407U, 0xbe0a2d10be43e948U,
  0x3dd0aadf3e8122bbU, 0xbd00b7113e218948U, 0xbdea42773c91e4c8U, 0xbe9539efbe854835U,
  0x3d3a0acbbe8777e0U, 0x3e2ddb1a3b3bd7f9U, 0x3c4add1a3d2b9b4dU, 0xbd8703643de55c44U,
  0x3d9470133d5d405bU, 0x3d6fa9693d0f87b6U, 0x3d7cba5d3e21ab77U, 0x3da9fff63dfed368U,
  0x3cf3f506bcf7dd61U, 0x3d629e233e187135U, 0x3d8b6df13e2a4ecdU, 0x3a8e147bbc945fa4U,
  0xbdcba881bd31628dU, 0xbcd4811cbe4e1277U, 0x3e0eeebe3d010cf0U, 0x3d54af153dd15d66U,
  0xbd02fd503c70594aU, 0xbe47cf4ebe537745U, 0x3da3c250be84f7d5U, 0xbd6aabe33d7ff1c7U,
  0xbd854fb3bccb7f05U, 0x3d675b7d3d86b943U, 0x3db60c8cbce8a3eaU, 0xbdde3860be4004f9U,
  0xbcf1042bbdab2ac1U, 0xbdbc9bc03d99069cU, 0xbdd109f9be061ff3U, 0xbe3a5f32bd82f2f7U,
  0xbdb7e5f3be45a845U, 0x3d4fa07fbcb5eb25U, 0xbb30c8ba3ddb08b4U, 0x3e2142bdbcd7321eU,
  0x3d4acc043d96485aU, 0xbdb33e103df4819fU, 0xbd7958cebb82f04bU, 0xbe17c64dbe2a0326U,
  0x3dba849c3d541002U, 0x3dda0810bda8e9e6U, 0xbbc04b733d1bd285U, 0xbe279d98bcb4f033U,
  0xbdeeed58bd97cef4U, 0xbcede1dfbc8ca74bU, 0xbde2ff413d8cbe35U, 0xbdf8e548bda18786U,
  0xbe3281d43d33db6bU, 0x3e12b4f4bd92e05cU, 0x3e3f342f3e4229aaU, 0xbdb422c9be785d99U,
  0x3dbd47b2bd21e42cU, 0x3e37d51d3e1ef803U, 0xbde901583dbc5895U, 0xbdae076d3e108d2eU,
  0xbdf58e2d3d3b6d81U, 0x3deb5d6cbd353728U, 0xbe18cfe63e2c7955U, 0xbdaec66a3b644394U,
  0xbe6dc2d2be4ff23bU, 0x3d0fa51fbe083f6fU, 0x3da7f934bd7b01fdU, 0xbe122796bc66d1acU,
  0x3dd51f7dbdac8e97U, 0xbdddcb0fbdefdf12U, 0x3dab12723db1fd1eU, 0xbcc02fefbd00ccd0U,
  0x3e02297c3df161bcU, 0x3e04c83b3d326f09U, 0x3d92ac1bbe1860aaU, 0x3e2efe153e26c7c4U,
  0xbe1a93b6be2fbbe4U, 0x3d74632dbdc78bf8U, 0xbe399c11be1056bbU, 0xbdec50a13dc067e8U,
  0xbdf0cbf1bda8ebd1U, 0xbd402542be09586cU, 0xbd0d8f74bd08074eU, 0xbdd830b03e066a95U,
  0xbca5b4e7bd897534U, 0x3d062134bdda5199U, 0xbe2187f73e1d9071U, 0x3e1ea882bde8650bU,
  0x3c83306a3baf214eU, 0xbad6dc923def113cU, 0x3d81a4e93da35a9cU, 0x3c651187be261016U,
  0x3d3a8ae43e146291U, 0x3e21d3b1bdca472aU, 0xbd8d72e8bd837297U, 0xbcd295023dd47e87U,
  0xbcf724b13d8a6067U, 0xbcf13c2cbd8c8cbcU, 0xbe1ed28b3baca1d4U, 0xbdcac1e8be541a65U,
  0xbc8372bfbc705fb6U, 0xbd4aaa31bc63bbacU, 0x3e01497c3dc5e2beU, 0xbe207434bbeb73a8U,
  0x3e00e5aebdc12f38U, 0x3cd576853d131a67U, 0x3da5c2493e50728eU, 0x3da00aea3e2b1734U,
  0x3dca4b7cbd6f5887U, 0x3c978734bd6a15a5U, 0x3d654652bc75d6e6U, 0x3e038b7c3e0f7c10U,
  0xbdd877b0bd67e4c8U, 0x3db8ec15be17f1b6U, 0x3e3d52963e283085U, 0xbe15b830bc00ac59U,
  0xbe2a213abdd59558U, 0xbe4dbb8cbe38dde9U, 0x3e18202e3e0aba56U, 0x3ca0dee0bc2d6006U,
  0x3cecc6ccbdef367bU, 0x3dc73328bd8720c7U, 0x3d4c91333d2c8caeU, 0xbd57a518be3e5509U,
  0xbd12a3643e14aed4U, 0x3e3fdfe8bc4ea542U, 0x3e31b5fd3cadca39U, 0xbce612f5bd79b896U,
  0xbe341b003d2b53f7U, 0x3d36f714be6d3b1eU, 0x3dffdb3a3e2037e3U, 0xbe13f322ba0c26f8U,
  0xbd2beb0fbdc93dfeU, 0xbe41017bbce59e94U, 0x3de7659dbdb4969eU, 0x3e337fd73d07e207U,
  0x3dd9ed3fbd1392f8U, 0xbe685802bd616e99U, 0xbdbc84c83d2fe042U, 0xbe0baabcbe2e5f8cU,
  0xbc038be73dd5d425U, 0x3c61471cbe1ccaddU, 0xbbde45253d875f1aU, 0x3e024da53d0363c5U,
  0x3dc18b283d3baebfU, 0xbe1342cf3dc28df4U, 0x3e562608be4513dcU, 0x3c9f15e83d917a3cU,
  0x3e059ce33e47f828U, 0x3e1677713c2a5d80U, 0x3e2c308d3df1349dU, 0xbdc09064bdedbd8bU,
  0xbd070d2abe1066ecU, 0xbe1673eabd9f9530U, 0xbdb4d7d3bd504c10U, 0xbc7820273d8aa415U,
  0xbe75c748be1ed7b2U, 0x3d33e26e3d5631acU, 0x38a68358be10e0beU, 0x3d0ff0b6be3aa750U,
  0x3ced01e03e15639fU, 0x3d45c9653caefe6dU, 0x3dfcff2b3df65edfU, 0x3db0ae6dbd894092U,
  0xbe24070c3d313656U, 0xbe2e1520bbc82e40U, 0x3db45eda3da922dfU, 0xbd041a4bbbffc97bU,
  0xbe00a9ac3d39b943U, 0x3d9af23bbd85b96eU, 0xbb4b45a5be27220dU, 0xbd2c27b73e424b23U,
  0x3c4102003e0d9c3aU, 0x3df90c13bdf9855eU, 0xbdfd15b4bd70e3a3U, 0x3e0f76313e0b54c9U,
  0x3e736acebda7c29eU, 0x3be3504d3e5af166U, 0xbd9db112bdaca455U, 0x3d49ac613aea6e72U,
  0xbe6a51d0be0f2e9dU, 0xbd8da7e13e356658U, 0xbe3a1a45bd3313ceU, 0xbdd92943be872b3dU,
  0xbe19734a3d2d0a11U, 0xbc21c074bda428feU, 0xbd9379aebe15cf8fU, 0xbcad5ab6be33e73aU,
  0xbe13a7353d458c72U, 0xbe262362be4ddeffU, 0xbdca0f123e3d3c66U, 0x3e50e611bda42164U,
  0xbdafc2aabde43defU, 0xbdef85753d3d9f5eU, 0x3d4ce9723e128b53U, 0x3bffdc473be1ba90U,
  0xbdc6b2643e14c285U, 0x3ad2c2a4be0eb641U, 0x3b940eafbe3e41ddU, 0x3cf48d033c49c052U,
  0x3d5d7dd93e0b075aU, 0xbddaa6f8be7227c3U, 0xbce825d2bdd4f152U, 0x3ddb9468bd60a7ecU,
  0x3d083675be414e76U, 0x3dd2e69bbd3b2a31U, 0x3c705df13e15d9ecU, 0x3d9e5265bd8b5043U,
  0xbe2b397c3d00b742U, 0x3dbda565bc99304dU, 0x3e72e1a83e3a8529U, 0xbe1e5901bd7dee8cU,
  0xbd98440f3e1cc352U, 0xbe358aa3bd6148edU, 0xbdabaf973e168a3bU, 0x3d0edf86bdd43884U,
  0xbca7504dbdde18f3U, 0xbb342a50be548218U, 0xbe79f44b3caf187cU, 0xba13c1c03da896d9U,
  0x3d076205bd4aca33U, 0xbd6e177cbce53f13U, 0x3d3a4bd23dafb9f9U, 0x3c66b1cabdd00f01U,
  0xbe25e082bdb11695U, 0xbb7423973e2efe30U, 0x3e20043fbe269c1bU, 0xbe4d2d093dbd7d83U,
  0xbd99be093e161a30U, 0xbd976ee7bcd29200U, 0x3cce3c59bd0ced52U, 0x3d7121913e203643U,
  0x3cd16cedbc8d71b2U, 0xbde7e1dbbb66a237U, 0xbde891c93dba6a1eU, 0xbc4ce4d23dbdcebcU,
  0xbb2c604bbc897a2dU, 0xbe4cb0dd3dca25aaU, 0xbc54e86fbde8d678U, 0xbd8c00bfbd9e48bcU,
  0xbe6e227cbe124edfU, 0xbdde71ee3dba60f2U, 0x3d240c7a3d20cc3fU, 0xbdbde0593deb0671U,
  0x3c1eb09c3c60f115U, 0xbd67d3c9be0774e2U, 0xbd00dd63bd477361U, 0xbd3b6029bbdce728U,
  0xbd21f3eb3ce76fa0U, 0x3bc62a2b3cab95a3U, 0x3d04302a3d49d8b9U, 0x3d3417de3d20920fU,
  0xbcffb8f33deaf352U, 0x3c9b2da13dc58443U, 0xbc1573d2bd4d9142U, 0x3d0682873d10fb8aU,
  0x3c609ccebd357c35U, 0x3d350a563c858e0bU, 0xbc76d4273dbeed42U, 0xbd25f0aabc38354dU,
  0xbb3a648ebdd0d9a7U, 0x3cda8a523b5a42a2U, 0x3d5417bbbdee3184U, 0x3d8582003d622592U,
  0x3c323d73bc1ebbe4U, 0xbdca4313bc76396aU, 0x3c302ae2bd16b6dfU, 0xbd4a6ed8bc36d6d0U,
  0x3cb6302fbcca7f74U, 0xbd984a163d7be0bbU, 0xbd90d8c0bd77b542U, 0xbdd37be53c2f4b3fU,
  0xbc9bd0dfbdffd0ecU, 0xbd1819d5bdf7188aU, 0xbdbb6083be07569eU, 0xbdd08516bd74a1a9U,
  0x3d5e995cbdaeba71U, 0xbd91934f3cda2bbfU, 0x3d697d01bc2bcb67U, 0x3dd4207dbc8f6b5bU,
  0x3d5453823dacb372U, 0xbdd5cad2bd40cd2eU, 0xbd687f16bd293d20U, 0x3d463ea93c31a360U,
  0x3d569e473d035d14U, 0xbded5d4fb88111cbU, 0xbcd835fd3db6bbe4U, 0xbddb99c4bdaceddaU,
  0xbd77f4743d8bcee9U, 0xbd4a74d1bcaa8aa6U, 0xba8c5559be0eec63U, 0x3bbbc93fbd2262b8U,
  0xbdbfeb5abc7eee18U, 0xbdb4c712bd124cc1U, 0x3dca6e21bc1b5461U, 0xbd978f063d78c82bU,
  0xbdf4e875bd666711U, 0x3d98ade9bd98694fU, 0x3d68bbd0bd8f8600U, 0x3c988ba83d355123U,
  0x3db9069e3d96e7a0U, 0x3ca30402bd7f7453U, 0xbc1ba87abd8f3abfU, 0x3d8caf53bdd220c7U,
  0xbde76f97bdc2275eU, 0x3da578843d665565U, 0xbdef05d4be0e9ce4U, 0x3d7dae9bbde194aeU,
  0x3d700bc8bd84bedbU, 0x3d3931c13da3c0a1U, 0xbd5fdf0cbd6fa0d2U, 0xbc5e9af3bd16c8d0U,
  0xbc5987923cfa7bc3U, 0xbdcf3da13d3bee5aU, 0xbdbc2d85bddc250eU, 0x3d4f12ef3d787c4fU,
  0x3d47163dbd5cc9fbU, 0xbdb99a953d980fd6U, 0xbcd183063ceb08ffU, 0xbe050e64bd4c6e3aU,
  0x3d3c19c83d88f8a1U, 0xbcf7e2813c3bd5a6U, 0x3b5950523ba16fbcU, 0xbddcd6023d28a933U,
  0x3cfc0a5f3c9667caU, 0xbda652973cfa8ee5U, 0x3d81df903d69b88bU, 0x3d5aad5cbd05673fU,
  0x3cbe95cb3ca26943U, 0x3b05da2d3d07d2cbU, 0xbd844454bbf0c5d1U, 0xbd4a8adabda2ff2bU,
  0xbc90180fbd90fc4eU, 0xbdcc754ebd991db8U, 0xbcefeb233d57eb15U, 0xbcf8eb5d3d464158U,
  0xbde6c6f3be02af4eU, 0x3c7f97d5bd868272U, 0xbd9b6a713d6b6238U, 0x3d9f2a863c5c9ec0U,
  0xbcf5c920bd98bfc2U, 0xbbe278adbd26d766U, 0xbdd984003d421792U, 0xbcd44f593db36c66U,
  0xbd4c68c83c10ccb0U, 0x3d7e1c92bd250236U, 0x3dd4ed43bd50e34aU, 0xbced1ad3bce0cf04U,
  0xbc71ea1e3ce7e36dU, 0xbe07a714bc178379U, 0x3d58c9c1bd063007U, 0xbdd71ea63cfd2e11U,
  0x3d744f31bdfe452aU, 0xbdabdfd6bbead29dU, 0xbcd19921bce2348cU, 0xbd4b041ebe153a06U,
  0xbe060f9b3d24262fU, 0x3dc23c2dbd4f958fU, 0x3cfae5e43ca5bd2eU, 0xba7551283dab31ceU,
  0x3d5b63d83ccc819dU, 0xbd089dfdbd42828fU, 0xbd39cfe73d32e8c9U, 0x3bb958c6bbf25621U,
  0xbda78101bc3f3e17U, 0xbde4eaf53ce437efU, 0x3c300b03bda2e29bU, 0xbe04cf0abdd86c1eU,
  0xbd200da3bd16d512U, 0x3d59a2503c202fcbU, 0xbd665fac3d4fbfabU, 0xbd3bb258bda78eceU,
  0xbdf794f4bdf38619U, 0x3db253fbbcdec8d5U, 0xbdb3183cbce6b60cU, 0xbc3061183d81277dU,
  0xbd062e1a3db4e707U, 0xbdce78a93db22bfdU, 0xbc5ab1ad3ccd2650U, 0x3b5decf5bdcbbb0aU,
  0x3d41205cbd91916bU, 0xbd79870d3d4a26c4U, 0x3cb66a3d3d56b706U, 0x3d928ff03d0d638dU,
  0xbdcd5f5a3d4b908dU, 0x3d9cb3f93cb3cd25U, 0x3d32b054be0524bfU, 0xbc7a849dbd4e907fU,
  0x3c4c47e23be53479U, 0x3d5ef4a4bca7d3eeU, 0xbd64edd93cf4bebaU, 0x3d8f3169bc937929U,
  0x3d2d085dbd92d2cdU, 0xbded6b8b3de1eb28U, 0xbd7d6de5bdae23edU, 0xbc1a50413dafd48aU,
  0xbd27502cbd68aa5cU, 0xbd27e2e03d7e2931U, 0x3d23de413db2bfd2U, 0xbd4ab044be095f82U,
  0xbdf318f1bdc1b88aU, 0xbda2bd2c3d1f551fU, 0x3d68b013bc2dfdd5U, 0x3d4a1999bdf00c5cU,
  0xbd349fe9be3730b0U, 0xbd9dc9dabe020ff9U, 0x3d151797bdc960c9U, 0xbc2a6e0cbd4f4fb2U,
  0xbba52bc13d7c91c1U, 0xbdfa9a6a3da63762U, 0xbd032a78bde66081U, 0xbde1f38ebd2abf68U,
  0x3d22e942bbf5617eU, 0xbd97c94ebe02b378U, 0x3b8934fcbb23de53U, 0xbdb8d97fbdc732e6U,
  0xbdc6c6bfbdab95dcU, 0x3c83a6fdbdc6705eU, 0xbe513b8abe2049dfU, 0xbd5fcf17bd9da43dU,
  0xbd679e343cd31c93U, 0x394c415ebda7c4b6U, 0x3da2310cbe15a271U, 0x3ce15a30bdb253c8U,
  0xbdfb028ebdb4f478U, 0xbe2b7ce1be02d578U, 0xbdb2ae043c9a6215U, 0x3d0332f739eff2c9U,
  0xbd944c7bbc6a104aU, 0xbc774576bd8a01a9U, 0xbbea9fc4bd377a49U, 0xbd60735abddad9c2U,
  0xbd8556d8bdfd7612U, 0xbdb23b2b3da9839eU, 0xbe4346f93c48892fU, 0x3c8773893bb2f979U,
  0xbd1ea03c3daa0a6cU, 0x393c5f13bc9d1f59U, 0x3d732c12be10eccbU, 0xbd675c00bdd20659U,
  0x3d8055a1bd1fd590U, 0x3d4c1568be223846U, 0xbc6fd5e13dae81b9U, 0xbdf49ce4bcbcf568U,
  0xbdc9bdf7bd356c2bU, 0x3d867ccabce639e5U, 0xbd4dfc4cbd00ebc4U, 0x3c58f6403d20bf1aU,
  0xbd4f316a3c9786fbU, 0xbcd4df313d370707U, 0xbd83d9b6be0b7437U, 0x3c295431bda9e77aU,
  0x3c0ae1febd04b902U, 0xbd4cef823cf4df51U, 0xbd86eff7be118a6fU, 0x3db7b648bd570f6aU,
  0x3d9d0edfbd2124ceU, 0xbe522579bd60c5f7U, 0x3c6d07d7bdd9bd6dU, 0x3b11c64dbe02fc3cU,
  0xbd8d9670be064bf4U, 0xbd95b4fcbdb9246dU, 0x3d04a338be290716U, 0xbd27cae9bdb84fa7U,
  0xbd250a373da6e450U, 0x3d0ca226bd4daed1U, 0xbe2fbedcbdac7ba4U, 0xbd707e7dbdc664d8U,
  0xbdf201743af7aceeU, 0xbd75427a3a22a7c4U, 0xbd870f7dbe104619U, 0x3d901740bd8dd645U,
  0xbd07c77cbd16d34dU, 0xbdf19c39be01ce09U, 0xbdfcf7fdbe0a4684U, 0xbc4a57bfbc01837fU,
  0xbd706667bd6bc1d6U, 0xbdd5d2c8bd28e6efU, 0xbcb49c91bd54975fU, 0xbdf3303ebc79889fU,
  0xbd136cbfbd5fccb2U, 0x3d0be6cbbc8c7765U, 0xbe0ea70abdbecb9cU, 0xbdcbb69bbd0bce7bU,
  0xbde230bb3d3a9d5eU, 0xbd97be5bbce650dfU, 0xbcb1cae6bcbccf86U, 0xbd7843483d23d55bU,
  0xbdd72cc5bd91feccU, 0xbd7ac0dfbdbc01c3U, 0x3cc7a2dfbd4594f2U, 0xbdb11d31be294f26U,
  0x3c6bf057bb8624faU, 0x3dc2eaf0bd56aab0U, 0x3d4b49c6bd747b0cU, 0xbe14b10d3d3789bfU,
  0x3bd295d3be06fae9U, 0xbd7f16d9bd8f42f2U, 0xbd0175ab3d9b99b0U, 0x3d0909c73d43a5dbU,
  0xbdcfc06e3d11d7dfU, 0x3da1d2afbdcc07d0U, 0xbce8568c3bd475e1U, 0x3d6288a83d8ca8fdU,
  0xbd657264bd9db8b0U, 0x3c34c3753dd05cdeU, 0x3d3923523d36c067U, 0xbdfdd24bbdea52b1U,
  0x3d80dc213c62e26bU, 0x3d640dce3d3500b2U, 0x3cefe80ebdd93941U, 0xbc25ef563bfb262cU,
  0x3d2e75c0bd12fb65U, 0x3c55ce453dd98b71U, 0xbdc85162be38d65fU, 0xbc9eb6ccbdab3205U,
  0x3d1ef16ebd8384caU, 0xbd1686aebdeb8805U, 0x3b975b34bd28c60fU, 0x3d863965bdcfb33cU,
  0x3cbd5c4b3c1708c1U, 0xbdd7aec3bd5f49f1U, 0x3d60f1e23d63c89fU, 0x3d523319bd90f705U,
  0xbd8a70cbbd30406aU, 0xbe098ceebd7a3262U, 0xbd83ee08bcf7d7f4U, 0xbe191f03bd84d2cbU,
  0xbc4380ef3d7d9c42U, 0xbc95cc53bd66644fU, 0xbe2307d3bd7247feU, 0x3cbdd5d1bc3c1400U,
  0xbc0586a8bcb06428U, 0xbcc4c9aebcc9f9b0U, 0x3bc7b485be1e3f76U, 0xbdb7d91ebdd50fbbU,
  0x3d966cf1bca240daU, 0x3d5dcdae3cdb056cU, 0xbd1222dcbd5c8310U, 0xbc09b7c8bdb45662U,
  0x3d995275bd18b994U, 0xbcce73763a6c6a10U, 0x3ccca261bd90e370U, 0xbd83cf3ebbd4a212U,
  0xbde89cdebde77be9U, 0x3d541aecbd77d02eU, 0x3c6326f9bde28d6fU, 0xbb959d16bd1e4b55U,
  0xbd2700033c9abcfeU, 0xbb3414b6bc7f86a4U, 0xbda91bac3c8ff00eU, 0x3b8db5663d256008U,
  0xbd743ea7bdd57f26U, 0xbd8e8f06be094bb8U, 0x3d86e4fabd9a5f8bU, 0xbc1281123cd93f12U,
  0xbd4d347ebdb167dcU, 0xbda6626fbd3a4cafU, 0xbd9355413d976178U, 0xbdc40d56bda8dbbeU,
  0xbd87222cbce59bbfU, 0x3d693d673ca4ff04U, 0xbd8c27793cd90ed4U, 0xbcec632f3dc158eeU,
  0x3d555e41bdc51fb4U, 0xbde2b3bdbc97e303U, 0x3d7154a6bd2e2160U, 0xbdcc96dabdc11fa3U,
  0xbc887094bd52183cU, 0x3d3091ff3af3e391U, 0x3dad6802bd8eebd4U, 0xbd851f9d3cb82909U,
  0x3b51ed8c3d17cd8bU, 0x3bb43aa6bdb99560U, 0xbd41f837be013314U, 0xbdefe528bdec45b3U,
  0x3d385d40bdce5339U, 0xbd462884bd910a5dU, 0x3c77096b3ba454e1U, 0xbd63a3a83cd7f61eU,
  0xbd87103ebcc16c32U, 0xbdc28001bdd73f6bU, 0xbd0f4ecbbc930fb9U, 0xbdbd3c83bda6517bU,
  0x3c2a7f363ceeabadU, 0x3a4fcb7b3d199a25U, 0xbdeac3f7bcc8ca63U, 0xbd896d283bb177a8U,
  0x3cc45759be0bedbbU, 0x3d72eb963d9c8b55U, 0x3d790350bd2ac03eU, 0x3d3cb033bd246cd0U,
  0xbdcbe2f3bda4411bU, 0x3cabe1a7bdbe29d2U, 0x3c4fc727bd8c96d7U, 0x3cea2f8ebcba0503U,
  0xbdcd75f53d8ade40U, 0xbd98bf063ba69091U, 0xbd2871a9bdd1f2f0U, 0x3d117f0a3dc7c577U,
  0x3c9e90a63c1afb32U, 0x3c8254f8bd67fcc6U, 0xbbef4415bdc073d4U, 0xbd8f86283b3889c2U,
  0xbc4e3ad63c5ebbedU, 0xbdd733bcbd004ad2U, 0xbd8ddd1bbc903a17U, 0xbbd4a7203bd8304fU,
  0x3d08cb0d3b69257fU, 0x3d161776bda9e0d6U, 0xbd48c00cbdd066d1U, 0xbdb7fb773cea3137U,
  0x3cedb6b23d1d9ea3U, 0xbc67ef0bbd95f3deU, 0xbdaf5e85bd093bdaU, 0x3d8d0c36bd7d90b5U,
  0xbdc8fe3f3c29f4a5U, 0xbd810e6b3b0c99a0U, 0x3d152b20bbbae968U, 0x3dc7667bbd87f827U,
  0x3d380ff4be01423fU, 0xbde618273d840f98U, 0x3c8a473ebc5358b2U, 0xbd5a50043cdb9fb2U,
  0x3d6e595a3c817230U, 0xbbf61d7c3cdce164U, 0x3d2c3a403d1c2895U, 0x3d861599bdb12c60U,
  0xbd627169bc98d68fU, 0xbcbf74e3bdca63adU, 0xbd4662303c0611fcU, 0xbb1051a03dd37ceaU,
  0x3d91dfa23d38bba0U, 0xbd611767bd5531f5U, 0x3d10c818bdc73fa0U, 0xbdbe9f64bbd5115cU,
  0xbddd4d7cbdcc15efU, 0x3d4546bd3da8e6d4U, 0x3d136e3c3da10a31U, 0xbbd3025dbdd5183aU,
  0xbdafb693bde8fbcfU, 0xbd7aaef43d263cbaU, 0x3d8a17113d2146f6U, 0xbd315e393db067b6U,
  0x3c0e11b83dc26f7fU, 0xbdad8c15bc926767U, 0xbd8aea01bdd5f015U, 0xbd3dbb16bd11384eU,
  0x3d39c549bd9b6697U, 0x3c8483823d18c592U, 0xbde8cacebd57712bU, 0xbdbe6c54bd384410U,
  0xbdca3d32bd8272d7U, 0xbc73ae56bdac39b7U, 0xbd8310683c8925bbU, 0x3d16611ebd270724U,
  0xbdee1de0bd7c037cU, 0x3d959c14bd048c3dU, 0xbdcfff9c3b8ab604U, 0xbd3987be3d9e2d70U,
  0xbe0696123a06aa84U, 0x3d4d626dbd8a732eU, 0x3d8b9f8f3b85fd3aU, 0xb9f412003c5c71f3U,
  0xbd74e73e3d9f66d2U, 0x3d961aaabdea0025U, 0x3cab034c3c0189adU, 0xbdf7c15d3da43edcU,
  0x3d97c3c23c9ade19U, 0xbdbb548dbcafdc22U, 0xbd817af2bc706182U, 0xbabe61c2bd3eca91U,
  0xbc334d37be006c6eU, 0x3d5e2c1bbdbebdadU, 0xbd85611c3cd99f2aU, 0xbcc093c1bd8362ebU,
  0x387f8f003d08bd03U, 0x3dbba717bd2bd3cbU, 0x3d7b04b7bdf83d71U, 0x3d66c192bd59381aU,
  0xbd8faff9ba9c3747U, 0xbd8cc7743c564d72U, 0xbd811604bdf913b2U, 0x3bf32b83bd935641U,
  0x38ba5683bd57e8f5U, 0xbda0627bbc56a3a4U, 0xbdaba33dbcb9183bU, 0xbe0245eebc96da18U,
  0x3c1aed6abd82ae3bU, 0x3c4d859f3d4bcde3U, 0xbbee57f9bd9669aeU, 0xbd742b193c592dc0U,
  0xbd331e7ebd325167U, 0xbbf5ebe539a8e89fU, 0x3d9e0a87bd7e0006U, 0x3d9f3e043ddd1627U,
  0x38f751aabda9c72aU, 0xbda111ea3b8929a4U, 0xbdc13abebd06e0d5U, 0xbdba5ecfbdaa8ea5U,
  0x3d9cf40e3c0781e3U, 0xbd918371bc645c93U, 0xbd1e12753d856f07U, 0x3b229a8cbdd4e854U,
  0x3c833047bddb4b4aU, 0x3dad3ebcbd3adf75U, 0xbdf25903bd03e0c6U, 0x3c3a72483c966b96U,
  0xbdaf2e86bdc232fcU, 0x3d8b4d93bc91544aU, 0x3d9b52013d70fbf2U, 0xbc6d5558bda7125aU,
  0x3dacabe5bd70ecf1U, 0xbd8e8bacbd8f08b4U, 0x3d07d6bdbd12cfb2U, 0xbb0502c4bd163ed8U,
  0x3d96f0613d96ede7U, 0x3d7acd0abdbd3b02U, 0xbcd682213d855f35U, 0xbba73fffbcfbede5U,
  0xbdc59089bddd874bU, 0x3d4408f0bc0e4a09U, 0xbdc264dfbd92724aU, 0x3d2557de3d5ec17cU,
  0xbd197ea33d8e6d4cU, 0x3d7f872fbd338e13U, 0xbd97677ebd6f660fU, 0xbdcccb913c0e9841U,
  0x3cca36dc3d7b365dU, 0xbdabae833d8b428cU, 0xbdaba7c4bcbbb853U, 0xbd75d080bdf6cbf3U,
  0xbdb64f4a3d74f24cU, 0xbc4447a1bdb411fcU, 0x3d811374bd6e884dU, 0x3d8e179fbd8a2269U,
  0xbd16cd1d3d4bbb9bU, 0x3dbb3698bdc35b3fU, 0xbc921b593ccd8318U, 0x3d7b92903c1f4179U,
  0x3da0ca70bdca79f6U, 0xbd4ee027bd521a36U, 0xb6132608bd261f52U, 0xbd2fd153bc2afc9fU,
  0xbcc9edf03d9e8816U, 0xbd862e863ce44603U, 0xbd73fa953da2d696U, 0xbdc33788bdddd7b0U,
  0xbe007d403d4b2b84U, 0x3d9487203d4d45c0U, 0xbdb4914a3daa03b3U, 0xbbfa51b0bc10b33bU,
  0xbdb28432bd6447b0U, 0x3d2db9d0bde680e5U, 0xbdc91024bd941895U, 0xbd51c6823dbb31eaU,
  0xba46851bbd534042U, 0xbd90444cbd9a50dcU, 0x3d40c6e5bbaefd8dU, 0xbda63ad63ca1d1bcU,
  0xbd9c09cbbcac5f96U, 0xbc59464a3cbd84feU, 0x3d6132cebddd376cU, 0xbd975c32bdc6472fU,
  0x3a4ca169bd8a45faU, 0x3d5f0fc4bccbf784U, 0xbc028273bdc26289U, 0xbd20f0e9bd49728bU,
  0xbd308893ba251c48U, 0xbcdd0450bdd699c3U, 0xbd2dc411bd4caa62U, 0xbdccdc31bcdd450fU,
  0xbd8dc70ebcd20eb1U, 0x3d9c0e36bdc73c2dU, 0x3d24cddebd85c225U, 0x3da174b83d8334c1U,
  0x3c705d163d56f237U, 0x3d93112a3cbaafc3U, 0xbd85d0e9bda3f972U, 0xbc8878cc3d91206eU,
  0xbbc16ba3bd712656U, 0xbdba5a493dc36e3aU, 0xbd8d913f3d10b53fU, 0xbca3938abd421e0eU,
  0xbc892890bc9b2e2dU, 0xbdbba0783d06f957U, 0x3ce224953d9f353bU, 0x3d1e7807bd3aa50eU,
  0x3c4f303a3cb818a9U, 0x3dba7f723c6274cbU, 0x3da900e53d46cc3eU, 0x3b3f78c03c57a109U,
  0xbdb816883d766d3eU, 0x3c2bc1f33d96d0b9U, 0xbcbd80ea3a96dbe2U, 0xbd61e538bd8689c3U,
  0xbd0757f0bcb1b555U, 0x3d15eff33d45cd14U, 0xbd2688f0bd7ed3cfU, 0xbc3b535e3d590f09U,
  0x3da55a4cbde3bb55U, 0xbccabf1c3cc30a01U, 0xbda232103d46284dU, 0xbd3d60873d49695bU,
  0xbe01ceef3cd5b2e7U, 0xbd4c2f5d3c39cf6eU, 0xbcaf78e9bd8442e9U, 0xbd5dfc03bd74e559U,
  0x3ca54cbebda0a746U, 0xbd01b3a63c252144U, 0xbd29dd1dbd2b5b59U, 0xbdeaccd8bd6fbc6dU,
  0x3db8d4babd262d02U, 0x3cc46ee6bca58474U, 0x3b45fc28bcb1a26fU, 0x3da1e534bca17647U,
  0x3cba4a21ba658562U, 0x3ce3ade03dadf0f6U, 0x3d493ca8bdc73251U, 0x3c69f099bdb7b189U,
  0xbda7545e3c6fd068U, 0x3bb95e90bd9ade5aU, 0x3d7be063bdba6ff3U, 0xbdbc0b7b3d282994U,
  0x3dc4118fbd23199aU, 0xbd8c7406bc6c3d3dU, 0x3d5c10dd3cda7fb1U, 0x3d92f897bd8ab664U,
  0xbd84abc03ccc1e30U, 0x3d468622bd61b2aeU, 0xbc2d6443bcca9f56U, 0x3d2f1dc23d72c2b2U,
  0x3ddca5793d694496U, 0xbb6dc980bdf6cc48U, 0xbd33a233bdb4d0dfU, 0xbb4bcad0bd975febU,
  0xbe301486be464164U, 0x3d58165dbc9cc8ccU, 0x3c980751bcb54c35U, 0xbdab7265be0e7dc7U,
  0xbdcd57863cdb07f3U, 0xbd48ea76bdba7c0dU, 0x3d1a78173ba18571U, 0x3d8f29b5bd07b5ffU,
  0xbcbef6cc3cbd3b83U, 0xbe03321dbc012c91U, 0x3d974dc5be2d4db0U, 0xbb7500b7bdd65ccfU,
  0xbc9a729f3e1c3368U, 0x3cf837b43e17167bU, 0x3e17902abe8231d1U, 0x3d311c7c3d2eda1dU,
  0xbe4f4be9bbabc821U, 0x3c9c22f53dacf322U, 0x3aca3edf3d8a113bU, 0xbdda911dbe5bb759U,
  0xbd2fba51be0b444aU, 0xbc1a64b53cabeecbU, 0x3e26bfbdbd4ff8cbU, 0x3da2c4cfbd2432f7U,
  0xbd906c9f3db1606bU, 0xbcc74a9abc83f114U, 0x3d70e97abe14377bU, 0xbe64f9debd1ccc37U,
  0x3d87467f3da50cb6U, 0x3da5721e3d4cda4bU, 0x3e8b348fbe3bf16cU, 0x3c9b0c9ebded9300U,
  0xbdd579a63c30143eU, 0x3c2f68873dbdd74dU, 0x3d65636b3d8edaa1U, 0xbb6fb111be2a3309U,
  0x3db7afc0be04bfcfU, 0xbe087f2f3e577f0bU, 0x3db6f2dcbca78e60U, 0xbcdc3583bd387b0eU,
  0x3c12be56bd4248f8U, 0xbca0f45dbdfd2e8dU, 0x3d6deffabe53af65U, 0xbe42512cbba26e6dU,
  0xbdcac51036f576c0U, 0x3d67c105bcfaad10U, 0x3e311d9dbe082a32U, 0x3ccc41af399881c5U,
  0x3d126f003d39cf27U, 0x3d8c8fb13c16616dU, 0x384ce2f2bd838c49U, 0xbdca360f3e07a2b0U,
  0x3c9be898bdd37a46U, 0xbd881f8bbe0668cbU, 0xbe568bedbdd531a3U, 0x3befa476be04c52dU,
  0x3b1ed0a43cd7ab34U, 0x3dfb22fa3d89f273U, 0xbdb30d0abe266caaU, 0x3ce59eebbb245721U,
  0x3bc9b954bd42d157U, 0x3cda00ab3d733af9U, 0xbd966528be0b54a7U, 0x3cfb42783d615c37U,
  0x3da51061bd0676a4U, 0x3dcee5293d8a6a03U, 0xbca72097be0c330fU, 0xbdabf1843e0b704dU,
  0xbdf6a014be306b85U, 0xbdc236f3be419bc7U, 0xbea2a7edbdb0ed8fU, 0x3d2d848cbdc8ed2dU,
  0x3d393b963c5a9475U, 0x3c8b5ba6be819a3fU, 0xbe059943be5f401aU, 0xbdc2e4d63cdc27c0U,
  0xbd33de36bd3a6800U, 0xbc6a0ec73e005c8bU, 0xbd085074bdf348c9U, 0x3d88e80bbd8fd689U,
  0xbd5af2eb3b885252U, 0x3db29ba5bd20fa96U, 0xbd520dddbd21337eU, 0x3d21f0b23dbf86bcU,
  0xbd328e7abd927e2dU, 0xbe47c2703b224594U, 0xbe5cbf20bd425161U, 0x3d7e4a65bdb1f9d3U,
  0x3bb21852bd409bc2U, 0x3e7aba73bdd01333U, 0xbdd60c58bdf0d397U, 0xbd4a6d213d376fd8U,
  0xbdd87d1ebcbb7c27U, 0xbe69f06a3e212454U, 0xbe0baeefbd4ff5e4U, 0xbc762e5cbd089103U,
  0xbdcc6a3cbc99d35bU, 0xbc0788adbdee5fb1U, 0x3dcd5636be3701f1U, 0xbd6f966a3e6216f3U,
  0xbd6233abbdfbdddfU, 0xbccfdf153c620d65U, 0xbde2d1b1bd2cd61bU, 0xbd33246dbd719efaU,
  0xbdb755af3dffd5a3U, 0x3dc33c103da8df96U, 0xbd70651ebdefc71bU, 0xbccae8683cee75fcU,
  0x3dd3e278be271d04U, 0x3da00b2d3e099569U, 0xbe5df2a5bd803171U, 0x3d5fabdebd71e6faU,
  0xbcdf0ebb3e0a0f04U, 0x3d6c9d58bc9aa1eeU, 0x3d36dec43b22df0bU, 0x3dc198e53e419c03U,
  0x3ddd434ebe04d19dU, 0xbe2b7adbbd9aa7f6U, 0xbe12d97a3d2b4863U, 0x3b04bcb63d41c200U,
  0xbd88b9d9bc434447U, 0x3e7d16a6bd05088dU, 0xbe26dcd0bdfef133U, 0xbe285703bced10eeU,
  0xbb112060bcb9d8abU, 0x3e268af2bcd06c90U, 0xbe7160cb3de98165U, 0xbd853ddcbe07bea0U,
  0x3d9f17403cc1658eU, 0x3d08548dbd9d896dU, 0xbd2ddc5fbdfe2238U, 0xbdad9bb83d94279aU,
  0x3df5b392be1fb8cfU, 0xbd5338c6be219e9eU, 0xbe7af38abc21ccdbU, 0xbd9964a5bddb950cU,
  0x3c0031a3bd05e365U, 0x3e808b69bd8adafcU, 0xbd8612c4be84b55eU, 0xbd779d963d9a8234U,
  0xbce7e7a9bd4d45bdU, 0x3e43bf44bd653760U, 0xbe1ca21f3da35d5eU, 0x3c885889bc776914U,
  0x3cf10ceb3c274858U, 0xbc807ac2bd87af50U, 0xbd0143583d8b7379U, 0x3d37a692bcee4394U,
  0xbdadc00fbc2366c6U, 0xbb923967bdc2dd67U, 0x3d859726bda812b0U, 0x3be72129bd2fdeafU,
  0x3cf675873dbd6bf6U, 0x3d3a8aef3c482358U, 0x3c6719f4bd020cb6U, 0xbd1d5321bddd8986U,
  0xbd7522a0be01fea2U, 0x3cf6cfbbbd371aa0U, 0xbde6f2063d783065U, 0xbcccec9cbdca268fU,
  0x3d1b53eb3d0ce59aU, 0x3daa3326bc9ce76dU, 0xbd648f71bd971eeaU, 0xbd7498e5bdce573fU,
  0xbcb39ba2bd3330fdU, 0xbdf4d644bde9d807U, 0x3d9a46333d38c95fU, 0x3d2f3a65bd3f1d43U,
  0x3c56c8adbda2391fU, 0x3d76efbdbd8b476cU, 0xbd623c0abb0908b8U, 0xbd2fdadc3d71d3a6U,
  0x3d6caf293b970ef8U, 0xbda20812bd14323eU, 0x3d4e1651bdd48ebeU, 0xbc4b10873d79c0d4U,
  0x3cc998f63c2f00a7U, 0xbcaa5717bd8ed7e9U, 0xbcdcb8133cc1a336U, 0xbd64b2ecbd47ff9cU,
  0x3d625eedbdd6a3beU, 0xbdcf1306bd733049U, 0xbdd542ddbd11494fU, 0xbdcca9ecbc437dccU,
  0x3c518c103d475876U, 0xbd8bb5743a6472a3U, 0x3cc7dc3d3da6c8e3U, 0x3c4e0bb5bd427eacU,
  0xbd1bfdbd3b9bef23U, 0xbc1b9f80bd990080U, 0x3d0fa92c3da7a3c8U, 0xbbd5150dbd50ec92U,
  0x3d9a7661bd60a26fU, 0x3cf7cbfebd0ca10fU, 0x3c3da28d3d0d5c64U, 0xbd29386a3c9ec7f1U,
  0x3db62f01bdd1c0f9U, 0x3c95815f3cf72dd3U, 0x3d3f32ab3a7f1e7aU, 0xbd008150bd94ec27U,
  0xbd6fe212bbb25757U, 0x3db01d1e3c1f1207U, 0xbccb3ab43d9eabafU, 0xbd3309553dad4ccaU,
  0x3db40832bd1096f2U, 0x3da9f7563cdac138U, 0xbe081ea8bd015a9fU, 0x3cdc2b42bd59a9b6U,
  0xbdd14c0dbd07c92fU, 0x3d47fec4bdbc955cU, 0x3d3202f2399a770cU, 0x3cf5dbff3cf42ae2U,
  0x3c41be80bd46d66aU, 0xbd669d3abe0d27a5U, 0xbda2c63ebc897b08U, 0xbc5b3a59bddaba2cU,
  0xbce003e93d02836eU, 0x3d7308bdbdab2df4U, 0xbdda0d4ebd3c53d2U, 0xbb81bfebbd2b1044U,
  0x3da4d1a53c90f470U, 0x3d8e861ebdb48816U, 0xbdb8c948bcba3853U, 0x3d9373fc3ceebac2U,
  0x3d87fbc8bbdb2103U, 0x3b0d743bbde758d8U, 0x3c6d37c6bc731929U, 0xbdd63896bd8dd5dfU,
  0xbdb852e4bd97f184U, 0xbd5b63e23ca71f81U, 0xbd39e068bde689b0U, 0xbc8ab838bc1ded45U,
  0xbd3f8e9d3d36967dU, 0xbd8fda10bd3d0a05U, 0xbd8263923d1be69aU, 0x3d3d06063b91c5ecU,
  0xbdaf20d0bd8c9721U, 0xba59f36e3bd06ce7U, 0xbdeaef2c3cda00f2U, 0xbdcda462bdc5eea5U,
  0x3ce36db5bd97225fU, 0xbc4c9a0e3d592606U, 0xbd907970bc933cebU, 0x3d1112ef3d93d740U,
  0xbb565825bdb3bf05U, 0xbd3803f6bc6c8ebeU, 0xbdda2af0bda323e4U, 0xbd18598fbdaecbc5U,
  0xbd64d5893d97cdc4U, 0x3dafffe6bcc455e5U, 0x3d7123b63cfc83c7U, 0xbdcda5f7bd9b98aeU,
  0xbb94880dbdf2d642U, 0x3cc8ee5ebcdb39eaU, 0xbd8d681d3d0588c3U, 0xbdd9ade1bd4e89a2U,
  0x3cc3affbbdbd8270U, 0xbddde5d8bd170849U, 0xbd8139fabdc27c96U, 0xbb8614e93d9693baU,
  0xbce9b5ee3c92a4beU, 0x3b9404febab61f11U, 0xbdc789dcbd99f2a0U, 0x3d0526d4bd94c191U,
  0xbc427bc9bc8cd9a6U, 0xbd2404b73d905095U, 0xbde9bee33ba8de5cU, 0x3d14b9c1bd671caaU,
  0xbdd494013b306788U, 0x3d4b0a98bcf9e690U, 0x3d2f38c83d848515U, 0x3d54f8ad3bdadc33U,
  0xbd4054d03cc264eeU, 0xbd566cfe3da56934U, 0x3bebfa0bbdbde859U, 0x3d7b4bb2bdf7fc8dU,
  0xbc2abfb6bda52415U, 0x3d1c7336bdb76156U, 0xbc45cb92bdc5f069U, 0xbdd13abbbdc3df42U,
  0xbc3a6c25bc8b6ea5U, 0x3c62afd0baa5ddadU, 0x3cd16b8dbd91e9b1U, 0xbdb9765fbda537c4U,
  0xbd8c6021bd6284b0U, 0x3db50641bd95a9e4U, 0x3b8adb0abd6b0fc1U, 0x3b2d13813d6df61eU,
  0xbd5ca0413d24dfd6U, 0xbd9565793ca2d30fU, 0x3c1a2d3ebdb59c49U, 0xbd5de94c3d211840U,
  0x3d387786bd6de751U, 0xbcb29d23bc28aff4U, 0x3d1a5b88bcc2c7f3U, 0xbdef6c72bd6547d4U,
  0xbd50cbd53d98942eU, 0x3df4c854bcc3a40eU, 0xbaa8c2803bcbb7f3U, 0xbd049bd53a95f4b4U,
  0x3ce261963d02d273U, 0xbdc33062bdad30c8U, 0x3c699199be133232U, 0x3d8921eabd332467U,
  0xbc8a30dabcbe84d9U, 0xbca0c94d3d81c74cU, 0x3dbae1af3ca978a2U, 0xbd032fd2bdd9b572U,
  0x3cb12c1f3d99fcccU, 0xbda1855dbd04a398U, 0xbd87f444bda0cdcdU, 0xbd72a0dcbd9f0214U,
  0xbdba0fad3b1bc261U, 0xbc94f773bd407023U, 0xbdd8a0c1bd60d614U, 0xbd562ada3cce6b18U,
  0xbd2d79e43d809e3fU, 0x3cf9d1bd3d57ba16U, 0xbd9fc9163c118a23U, 0xbd0b7b873dc19dd8U,
  0xbda31b843ca2a582U, 0xbd019047bd445e7cU, 0xbae02930bbca3214U, 0x3d96cda2bda6d205U,
  0x3d7c60e8bd089839U, 0xbdb0870e3cb01440U, 0x3d00b166bd7d932cU, 0x3d899b7c3c8e6f46U,
  0x3cfb3a6b3c3210c7U, 0x3d23868fbb1e37b0U, 0x3c35809bbcc450daU, 0xbd49a86fbde76a93U,
  0x3c7f919ebd8c981cU, 0xbd2f4b6fbdbd3cd5U, 0x3d25af043c3f39daU, 0x3d995efc3dc8f074U,
  0xbe17e60dbe041a80U, 0xbc98afbbbde398bcU, 0x3c22ad71bd162976U, 0x3c97f4d5be047075U,
  0x3d9e76b93aa1c564U, 0x3d204443bd8d1561U, 0xbb864ab9bd5bb843U, 0x3cd618163d15d2cbU,
  0x3d0218123d8c3bf5U, 0x3bd96eb93d2fc554U, 0x3d417c973ac223a9U, 0xbe0a4d37bdd09935U,
  0x3bc57e64bd5eb4aaU, 0x3a9d24ec3c09a6faU, 0x3d83ce8e3cdacecbU, 0x3d48199a3d4d7b7eU,
  0xbd031753bdf51cbfU, 0xbd1042d5bd8f5e47U, 0xbda4a3743d62b92eU, 0x3ca4e0233d550324U,
  0xbdaf5a84bdbd5a7fU, 0x3d2f2ee3bc23d040U, 0xbaae58733d4ef2ccU, 0x3d068eb83d26e96bU,
  0x3cbbeeb7bdc2d30fU, 0xbdbb1799bd327239U, 0xbdc655eb3d5bfcd3U, 0x3d2d1677bc8b136dU,
  0x3c08e5c9bdc3fe15U, 0x3dbb93c1ba159fb6U, 0x3d012ef5bdd6767bU, 0x3d18c8ef3c6e97c9U,
  0xbdb4da623d602bb1U, 0x3dbcaacc3da508c5U, 0xbd78e0083d5897b6U, 0x3dada4973d56cd00U,
  0x3dbbd3febd9c6d1aU, 0xbd92fd1b3d60c7c4U, 0x3c59b48ebc91a672U, 0xbb4edfabbd0648a3U,
  0xbdddca76bcb4a34cU, 0xbde1fd113dccf5a8U, 0xba383e08bd32017fU, 0xbd6a6e623c67b061U,
  0x3d99491ebdccc4c3U, 0x3db2ffc6be10c17bU, 0x3d8c48afbd4e92d6U, 0xbdc35cc7bd480ac1U,
  0xbd30ab6b3c95f6d5U, 0x3dadbd493da2b7bcU, 0xbda72938bdda8856U, 0xbc6b06debdcf4060U,
  0x3de4fe173d91f4beU, 0xbd856103bd4d7e7aU, 0x3cb6a4b5bbbf199dU, 0xbdb315383d3913deU,
  0x3c937e313d936e3fU, 0xbc96b7ddbcc447c3U, 0xbdcd6a70bd3ff15dU, 0xbe176359bc8bb970U,
  0x3dadd0b73ce2c970U, 0x3d87dce43d03001fU, 0x3d24ea6e3bc7e5e4U, 0x3db7de883b53a79bU,
  0xbd106d38bd9f3064U, 0xbd9d7e4c3cf5bbceU, 0x3da4578c3da47b0bU, 0x3bfd9ff4bda2b2e7U,
  0x3df42adbbd1ab626U, 0x3d7b9218bd646a0fU, 0xbde4864fbdd7fbcaU, 0x3ad2cb1f3bc88d35U,
  0x3ca6bc7fbdb176b3U, 0xbc81e824be0037eeU, 0x3d8eab56bd7307e6U, 0xbdc2cc66be08a8c5U,
  0x3d34d974bdc18c6aU, 0x3dcaa5fdbc1e5410U, 0x3ca45188bd3bb30aU, 0xbc437f263e1ac8fcU,
  0x3cb8f6f2bd2c192dU, 0x3d5f877bbba12b8fU, 0xbdaa0a0b3b4defbcU, 0xbd8d62f1bcb267f3U,
  0xbcd88b1c3b0b5205U, 0xbda2d9d3bc9f13a2U, 0xbda8a7603b1a30f0U, 0xbdc3b09f3d8edecfU,
  0xbd8e3fedbcdea7f1U, 0x3d7c0d013db2eb82U, 0xbcc32b663c641189U, 0xbdfcb649bd5e9f48U,
  0xbd89056fbd2a265cU, 0xbbfd4b91be013baaU, 0x3ca1428b3c756a10U, 0xbdd24e51bd34d3beU,
  0xbddb7cd3bce23b70U, 0x3ccbc065bdb2696fU, 0x3dc87cec3cc56629U, 0x3d8dad72bd1910deU,
  0xbdb1aad83d530b5eU, 0xbd5554e9bd841c58U, 0xbdf130edbd56740aU, 0x3c3ea557bda7da3cU,
  0x3d91d8b8bb49f58cU, 0x3d7f93a03dbbb1e8U, 0x3c8f75573cdac190U, 0xbd20ae5d3d5916e1U,
  0xbda79cbbbdff1bcfU, 0x3d0d27bbbd868405U, 0x3d900212be01746aU, 0x3cac53993dc0e2edU,
  0xbc839eae3cacd1b0U, 0xbd6f91a63d0807ddU, 0xbda1f0e6bdf86bf2U, 0xbd10b1ad3d0083e5U,
  0x3cb619033c7b7abdU, 0x3ca480f13cd12488U, 0x3c27a617bdb0fed3U, 0xbd11996b3d775b44U,
  0xbbaf02893d2e37daU, 0xbda4a9613d04a75cU, 0xbcb3cc95bda671faU, 0xbcad9c3bbb81542fU,
  0xbca92723bd34472dU, 0xbcc59179be0c7a50U, 0xbd37040bbd986e3aU, 0x3d5048fdbd0ab642U,
  0x3d350cb8bdcddc5eU, 0xbd9227f9bdf544dfU, 0x3c80d7623d2b48d0U, 0xbd8569c3bdbcd26dU,
  0x3a66fee13db06c33U, 0xbd8f8c13bc0d58cfU, 0x3cef4b383cc9a127U, 0x3d68c6a9bd7b0468U,
  0x3d20e8f93ceea29eU, 0xbcc06832bd9f0a92U, 0xbdc3b202bccaa4baU, 0x3b9b99a4bd363843U,
  0x3c3c833f3c8eee42U, 0xbd6f20d5bddcadc0U, 0xbde4227f3d03e7a9U, 0x3d4e4c8c3c77642cU,
  0x3d597e243d5db13cU, 0xbda168a5bd4196a1U, 0x3d02b51fbdcf8b3fU, 0xbd1c009c3dad980aU,
  0xbd197f0cbdfca133U, 0xbc8b01483ca858faU, 0xbdb78d7ebda2d40bU, 0x3d43ec323cb9f515U,
  0x3d0160743d86922dU, 0xbc0385563dd5aee2U, 0xbdb47f1d3cf3bb8dU, 0xbd04cfa5bd9551c2U,
  0xbda407e03b91e68eU, 0x3ccd4dd7bdd1d1b4U, 0x3bb136adbd78e55bU, 0x3ccf85c4bd1e36cbU,
  0xbb8b9ff73d71249fU, 0xbdb395d53b4b9036U, 0x3d0ffdeebc571fffU, 0x3da97ca3bc8e7f86U,
  0xbd871955bcb5d128U, 0x3cbc44b8bc8ea2e9U, 0xbe042798bd4464b3U, 0x3bcf4a06bd9099f7U,
  0x3cfc3de0bd75aef0U, 0xbdb5273fbc278937U, 0xbdab42e9bcde9f00U, 0xbd73c14a3d007ce7U,
  0xbd80552ebd9be03eU, 0x3d8a713c3ca348b2U, 0xbc833976bcbfb8f7U, 0x3d5686b6bd04183bU,
  0xbd127d1bbdb93befU, 0xbd99af01bdf169d4U, 0xbd5567463ba4f02dU, 0x3c31b0dcbcdef603U,
  0xbb6a28de3bd03a5bU, 0xbd982dc6bc73ed74U, 0xbe36a3ccbd97d2c7U, 0xbdf3321dbdcf4eafU,
  0xbd9c37bdbd1b42b5U, 0xbd75960dbcf1d89dU, 0xbd978b6ebdf0c032U, 0x3c9a8debbbc0b0baU,
  0xbdfb29843c5ad4d4U, 0xbc8cf70c3cce0e6eU, 0xbd84227ebd325960U, 0xbdf4e4993dbe1cf7U,
  0xbda31e063c8437a1U, 0x3da7e57bbb8934c5U, 0x3c83dc85bdb0db35U, 0x3cbe32eb3cb59b01U,
  0xbdc6924ebd03fba0U, 0xbdba1e323dde1ffdU, 0xbd28b1363cb76c5dU, 0xbdd4ffad3d9a7b3aU,
  0xbdd5959b3d535dfaU, 0xbc16a737bbf54852U, 0xbdce2d623db022edU, 0xbb790865bde86dbfU,
  0xbdcd40c9bdb81ed2U, 0x3ca7231e3d1b4955U, 0xbd6792fabce8d9c8U, 0x3c8db6cb3d4edc1eU,
  0xba03ff2cbd8e7d7dU, 0x3cf40bc93d73416dU, 0xbd9d751abcf249e5U, 0x3d34c200bdbe1324U,
  0xbd025d863adbb9c3U, 0xbd752ffb3d264ed5U, 0xbd72d640bcd3b9eaU, 0xbda51f92bde5c998U,
  0xbdbaa87cbcdd9a0bU, 0xbcb357efbe08db72U, 0xbd1809a43d658d87U, 0xbe03dae73bddea7dU,
  0xbda9fc423d3060afU, 0x3c822de6bdcda415U, 0xbd2936a8bdfa0a60U, 0x3d1a5c4d3d2e6148U,
  0xbc1227d03cb3a12aU, 0xbc210294bcb05822U, 0x3d11ad54bd979b6aU, 0xbb1ef0473c3f20abU,
  0x3d0d8bfc3d9123eeU, 0x3dab1532bd87e11dU, 0x3c148ebebdd52a8dU, 0xbda8e7b4bd02424aU,
  0x3d51f1c2bda0893dU, 0xbd05af703cf9c5c2U, 0xbc4a160bbde0fba6U, 0x3d20015cbc3b800cU,
  0xbda934c43c083af9U, 0x3d6308f4bd1817dbU, 0xbd3d0b123d2ed3b6U, 0xbdd5853bbc98fc88U,
  0x3e48a77abdbf5936U, 0xbdf23fd83d843dceU, 0xbd95040cbd25d069U, 0x3d1d4b483e008b4eU,
  0xbce380cb3de1c8c8U, 0x3de65b633dbaf0d6U, 0x3da82f0a3d2e92aaU, 0xbd9f4e443a2c9d5dU,
  0x3c458b1d3da3be3fU, 0x3d0d8161bc0357bfU, 0xbd192b8e3cffe28eU, 0x3dadd98f3c355085U,
  0x3cf5c9713d1089baU, 0x3da4c498be412ae1U, 0x3d553e8fbd6a4099U, 0xbac72a7dbcab3e18U,
  0x3dd587f3bd0f930dU, 0x3cbecf13bd8ee4a6U, 0xbd8c2e923c988ba6U, 0x3c94162bbdcc6a51U,
  0x3d00ba373d7aa6f8U, 0xbcf2e3bf3e1bc41bU, 0x3de7f69c3ddd5e01U, 0x3d75cf293da743e9U,
  0x3d1bb07c3e12543eU, 0xbd416eb3bd1c861dU, 0xbdb869553d7b3a5cU, 0x3d2edee13c79dfddU,
  0xbda3a5e43b09097dU, 0xbe043515be532669U, 0xbd76ddd5bd5bf9c5U, 0xbd829b34be2c19a2U,
  0x3cf1c1c43e2a16b4U, 0x3bf5d5943d8abb53U, 0xbe2f46b6bc8c4c4bU, 0x3d607ce4bddfffffU,
  0x3da9b392bdd4268bU, 0x3d546bb63aa2e317U, 0x3d10c74d3daa17faU, 0x3daefbb33d324b36U,
  0xbda19143bd1d4ef5U, 0xbdcde2183ddd9b68U, 0xbd969b8fbde2912eU, 0x3df3d0f93d52aa2cU,
  0x3def8d003cc191b9U, 0xbdc9781cbe18682cU, 0x3d553800bcc5f795U, 0xbdab487ebe293d12U,
  0xbe1f765cbdb9f28eU, 0xbdc3397e3d08951eU, 0xbe731de8be1516fbU, 0x3d6041cebdeaa411U,
  0xbe18a6873df6ecc3U, 0xbc62669dbd7cb361U, 0xbe0015673db4e244U, 0x3ca4b40b3df40bf8U,
  0x3b74037a3dd0e3ccU, 0xbe5c8db2bc84cb6cU, 0x3cb73b8e3de45378U, 0xbdaa48b83d8f84a0U,
  0x3e2a9004bca17a75U, 0xbe18d9cebe380000U, 0xbe0a1a65be5f5bc6U, 0x39a5ae5cbc9853dcU,
  0xbdc6c34a3d036a85U, 0xbe2ebd3dbc6a5e46U, 0xbd51bcac3c8fa452U, 0xbd0c6512be882f37U,
  0x3c2fbb13bd0a3bc4U, 0x3d2563633c0351e6U, 0xbdc2e96d3d972432U, 0xbb36badf3cf4d35dU,
  0xbddb63d23deb6b64U, 0xbe4778a5bd0c8aceU, 0xbd8d83db3dc032ccU, 0xbd30c030bd919ce6U,
  0xbd0de003bdd490acU, 0xbdd73f4abe87fb0aU, 0x3d17373bbe912102U, 0x3d14a08abda03505U,
  0x3db45d7e3da0c8aeU, 0xbdd801d33d45e985U, 0xbca31d9dbdac936bU, 0xbd5848bebc93f89bU,
  0x3e16e5a1bddd4abdU, 0x3c8311b93de55b16U, 0x3daedd03bd6db028U, 0x3ddaf7273d83a1e1U,
  0xbe54212a3dd61d85U, 0xbe90f1113d1d42ffU, 0xbd23c08b3e0c6096U, 0xbc41b3c4bcdea828U,
  0xbd871e1bbe0b36c9U, 0x3d7e0cffbe24f233U, 0xbdd6246bbe4dfa2fU, 0xbd1cebe0be43c9b1U,
  0x3b0c5382be365c9aU, 0xbe18d213bde56ad9U, 0xbdd0b55ebbec3c5aU, 0xbd7971ecbe0901dcU,
  0xbe271cdc3e1a5ffdU, 0xbc8a5a77bd6b85a6U, 0xbdcfaf223d907d94U, 0xbc6d9eb8bdd499e4U,
  0x3d084d31bd8f4907U, 0x3b48dbd23e06f222U, 0xbd2f62a03d573b95U, 0xbe051c623cc53002U,
  0x3bb90d1abddd95deU, 0xbea60e97bda1455fU, 0x3d6e1fd7bebff3aaU, 0xbdb5f606bd1df66eU,
  0x3da61132bdf0088dU, 0xbe3b5aeebd7350b3U, 0xbe16258dbdfe399bU, 0xbcd8d878be80dd06U,
  0xbc391fc53e18c41eU, 0xbd3ec466bc60c58eU, 0xbb833c48bcd62444U, 0xbd8a8da0bd71bbf3U,
  0xbd05b9633d08df44U, 0x3dcdb340bdd24213U, 0xbc3c987e3e1e5ceaU, 0x3b37a6acbd8d4b81U,
  0xbe350002be02518aU, 0xbd69a5ddbe192e7bU, 0x3d2eaf16beacc962U, 0xbc78d54b3d4f9710U,
  0x3d0c92ad3d89f48cU, 0xbe51e67f3d40c0d9U, 0xbd20b689bcc79a4eU, 0x3dcaa888beacf94bU,
  0x3d7812233db3fee1U, 0xbd4aacf83df84329U, 0xbe02fdce3db53993U, 0x3d4062c5be372a93U,
  0xbe5cfbdbbd2252a9U, 0x3db53b913dda0938U, 0xbd3b4c003d51151fU, 0x3d6968273b1d754eU,
  0xbe3fa39abce35267U, 0x3d7a250bbddc93ecU, 0xbd2c0e0abe6dd52cU, 0xbd8f97f2be009162U,
  0xbbdcae12bdc38e61U, 0xbd502195bd35d066U, 0xbd4e3356bdd25f10U, 0xbd421b613d95565eU,
  0x3dbd51febd9cc918U, 0x3d883f69bc8971b9U, 0xbd9de6cebcc39583U, 0xbcecf1643c7750f4U,
  0xbcb8bd033d434388U, 0xbdd9f4193dcde410U, 0xbd2b5723bbd89c8fU, 0xbd49d041bc1fb48eU,
  0xbda067d6bd1ac738U, 0x3d4be48abd7ffa64U, 0x3d0d6edd3d4c1abbU, 0xbd90e0193da0c275U,
  0x3ca75ef73d1d5abeU, 0xbc7a0c0c3ceb2e42U, 0xbdbb0e543d16ae15U, 0x3d878452bda456c7U,
  0x3d890cf2bc2050bcU, 0x3c3c9db2bde1c7f4U, 0xbdd094b6be0612b2U, 0xbdecd77ebdd749a3U,
  0xbcf26472bda7bc37U, 0x3d0ad7243dad3a07U, 0x3b9ed6b03d7c80f6U, 0xbd5d127bbd1c53efU,
  0xbdd46c583d794314U, 0xbda77060be018bafU, 0xbcf5540abd6d0295U, 0x3d13876b3d96a38cU,
  0xbdbab7c13c755cf0U, 0x3cd793dc3d74e311U, 0xbdc5798c3cf0f042U, 0xbd47309f3d848ff3U,
  0xbd33f35c3d83f93eU, 0x3adcbc563d4fe7eaU, 0x3bb57d6bbcecf0eaU, 0x3d5aa2a2bdc1bd79U,
  0x3d78f524bda8e21aU, 0x3c027ce53d0dc1f0U, 0x3c2b6ea93d7136b6U, 0x3db1c10cbc9ab4f0U,
  0x3d1df97ebbd71c5eU, 0xbdbd736abdcae4b7U, 0xbd9785a8bcda213bU, 0xbd6a2bb1bc946792U,
  0x3d4a51a7bdcabdd7U, 0x3b89b545bdd27331U, 0xbd8fff93bda91245U, 0xbdc17a3bbd6995d2U,
  0x3ccd5be6bd555e8eU, 0xbd397ea9bdfbb7cdU, 0xbcbbdc0fbce4adb8U, 0x3d225fcfbd38c64eU,
  0xbde625aa3a6f1c73U, 0xbdde9166bde020aeU, 0xbdd85cc2bcfcce1aU, 0xbdfb329bbdedff78U,
  0xbd4ee29bbde099b4U, 0xbd8a8f433d9e8dcbU, 0xbdb91003bd6db990U, 0xbdeb6ec63d9ce647U,
  0x3cb6fc7fbd8df7c3U, 0x3d57ae67bd613a5dU, 0x3d82899dbd98c03cU, 0xbdca9b26bc81dd6fU,
  0xbd2ee6a63dad2938U, 0x3cb4823bbd07afe2U, 0xbc6aee713b3f64e5U, 0xbd9142023dabbaf2U,
  0x3d39eb66bd6e71c8U, 0xbdaac0a2bd294291U, 0x3da95588bd7ad7b7U, 0xbd1e8708bd8cf095U,
  0x3c2eed7e3c881cafU, 0xbd50fb6e3c19de4eU, 0xbda6bbed3d547285U, 0x3da7df22bd88f40eU,
  0xbd9efedbbde2ada4U, 0x3c613a17bdc1bfafU, 0x3c8ae0c83d2c2d52U, 0xbcbd49f4bb650f90U,
  0xbcb62257bdb84b2eU, 0xbcda0f08bda17f0fU, 0x3d3bebbabb95715eU, 0xbd7a64aabdd7871cU,
  0xbd221b49bc5dc21dU, 0xbdebbdec3dadfab7U, 0x3d8b28aebda45222U, 0xbdde4836bd6fe301U,
  0x3d68087bbcaf5bedU, 0x3d5fbfe93d547cffU, 0xbcd830583d78adb7U, 0x3d66e3e8bd84aaa7U,
  0x3c0f3e333d63a2ccU, 0x3cae6edebd831024U, 0xbd9c1465bc9bc968U, 0xbdaa7cdb3d9705b7U,
  0x3d8e3c43bd912af4U, 0x3cc7316abe05dc9eU, 0x3d96f4a9bcf2ee4aU, 0x3d1e39fabdc23ae4U,
  0xbda0a0af3bdcc8acU, 0x3cf00c9b3d0506b0U, 0x3d50e27bbd2e4087U, 0x3d1ce3dc3d069f8cU,
  0xbda7b2a73a85a7a8U, 0x3d7680163d48786aU, 0x3d6062cd3aa52a01U, 0x3d2aa5cc3c9794e6U,
  0x3cd83345bd77dd97U, 0xba268f523d056efcU, 0x3d0b2700bd6bae0dU, 0x3dc6907abcdee800U,
  0x3d7a5e573da533d8U, 0x3c6e1595bd3ef366U, 0x3d559528bdbc7115U, 0x3c86f5eabd0fb2c0U,
  0xbddb2315bc412ac8U, 0x3ca2c7183d6a5ac1U, 0xbd80a00e3d9a2339U, 0x3d96fd103d481726U,
  0x3d91aed83dac8865U, 0xbcb033b03d08a2dcU, 0xbdf1debf3d40c6dbU, 0x3d8f7463bd75250eU,
  0xbdf6483bbc3044caU, 0xbdd67837ba92b309U, 0x3d9861ba3d0e4e94U, 0x3c88a13c3d24d6faU,
  0x3e028002bd1d34baU, 0xbd93d81b3c93f5ddU, 0xbd9a54f9bdaaa7fbU, 0xbbf223febdd0cc19U,
  0xbcb6ad5abdd41fa7U, 0x3cd98d103d9020c6U, 0x3b8e331abd82b2faU, 0x3d43d9fd3d1e71f2U,
  0x3dafd296bd0c243cU, 0xbc1680b5bda6e78fU, 0xbde3cf75bcf12dc6U, 0x3c374dfe3d86371fU,
  0x3d05d38e3d5a1705U, 0x3c92ece6be056b54U, 0x3df6a120bd333ba0U, 0x3a5b259b3db227cbU,
  0xbe06260e3e0158a2U, 0xbc97ed5fbd541645U, 0xbdbb9f253d19132bU, 0xbdb29a873c554b56U,
  0x3dcc1da1bdfcefc7U, 0x3e03869b3e2b4b99U, 0xbe168e95bcf1f88eU, 0x3df0301ebcb3638bU,
  0xbd8cf618bda6defcU, 0xbdb1559bbdee1023U, 0x3ce36e8e3e21e95bU, 0xbdccdab93d67c74dU,
  0x3cc34ab33d44f86dU, 0x3dc49207bddbd3daU, 0xbd0f91173d228da4U, 0x3d3b741b3da147afU,
  0xbe098aed3de8d904U, 0x3d559abc3e1bf7d2U, 0xbe00414e3dda3b7aU, 0xbcf32bb23d740750U,
  0xbbca8ab8be71349cU, 0x3dd8d09dbd5eb7e3U, 0xbe0955653ca0d507U, 0x3d1db545bdfc1fb0U,
  0xbd804cdcbcd218fdU, 0xbc5beaa23c6b6b2aU, 0xbdacbe4c3e1fc21bU, 0xbd6004aa3e354a92U,
  0x3d8b41813d50806eU, 0x3c90fd17bc8f8ba4U, 0xbd2d6d403cdb1e38U, 0xbd54d3933e145b3cU,
  0x3c9061633e19e9a3U, 0x3d5b36fb3c4e6e0dU, 0xbe55ae13bd10f503U, 0x3dcf810d3d198b63U,
  0x3ae00e51be35931cU, 0x3d28c5bb3d2a5205U, 0xbde99dca3dac37bcU, 0x3e073bbfbd4667f1U,
  0x3be2ca83bd0e52a9U, 0xbd4d34da3e0ec73fU, 0x3d1fd8e63dd8abb4U, 0x3d8a4f383d353a1eU,
  0x3dea01efbc2e0532U, 0xbe56d666be03c97fU, 0x3e1d6aecbdea938dU, 0x3c9ce7e2be348056U,
  0x3d2dcb823d0d4002U, 0xbd2ea229bce50dcbU, 0x3de48faabdac5e59U, 0x3d11d383bd980372U,
  0xbe11aa123e64fcbeU, 0x3e0711613e36737eU, 0xbde41355bd2ef76eU, 0x3d74a126bccd3566U,
  0x3e306b493b291209U, 0x3d57daebbdd795ceU, 0xbc2e6fc43d892e66U, 0x3cc2c5fdbda52db9U,
  0x3e46532d3ca38dbbU, 0xbd85ed64be4e3623U, 0xbe3186f0be21b636U, 0x3df726f4bd36d709U,
  0xbc7a4deb3dc53ffcU, 0xbd097d033dc2abafU, 0x3d58cffbbd6c6e65U, 0x3d8bf0c53c9ab624U,
  0xbe0d23b2bd381090U, 0x3c0d84c13c9f0173U, 0xbdc39b30bddbabfbU, 0x3d4df33ebd9e5fd3U,
  0x3dc7ce39be035b12U, 0x3d3fff7dbe27b6e2U, 0xbd99a2da3dd2671fU, 0xbd4a4fcabdd9aca8U,
  0x3e471be1bd5560d6U, 0xbd8b82d7bcee7dfbU, 0xbe7c53c23ca13c76U, 0x3d077fc13df3f371U,
  0xbdf4152f3e2d1ca2U, 0xbc6803873e0fb6f4U, 0xbeaaff68bda0c14bU, 0x3d77a542bccd1abeU,
  0xbdd2d675bc086e31U, 0xbd3d284f3e6fcec4U, 0xbe3bee2e3d6411f5U, 0x3d27c069bd4a217bU,
  0x3d86298bbe19473cU, 0xbd2d319dbd2333e6U, 0x3ca9b4f2bd6c304aU, 0x39ee7cb5bdfa3838U,
  0x3dda0d9dbe1a5477U, 0xbbe01e56be08d83cU, 0x3d6d6cdcbd1e1a28U, 0x3dd47a3dbdfe0307U,
  0x3e112cc0bda30dceU, 0x3ca1b1d7bcb6bf3eU, 0x3e148e8dbdac28a4U, 0xbe29e73dbbc76cd5U,
  0xbd3b9cb73db9c317U, 0x3dee58003ca76b9aU, 0xbb5bb7e6bceb9632U, 0xbb6001cabd40d127U,
  0x3dd6174bbd9ae925U, 0x3e03c823be474cecU, 0xbdf4fa74bdaadddfU, 0xbc077f48be46b23bU,
  0x3e07ed72bccdf255U, 0xbe039ddcbd890a8dU, 0xbc64d53ebc9d68a3U, 0x3dc21ea3b65d91d0U,
  0x3cda0029be352ec5U, 0xbd7e1c1dbd6c129cU, 0x3d5a264fbdda8c00U, 0xbdeaecb43b48bc08U,
  0xbea140703e59c623U, 0x3da7d4c3bc5bc7c9U, 0x3dcc8c7cbe33d03cU, 0xbdf2eeb3baf5553bU,
  0x3d26c46fbdc88464U, 0xbc83d32ebd8b7137U, 0xbd666e773d043a0cU, 0xbdebdef6bdb3b40bU,
  0x3ddf3d43bdf0e0c6U, 0xbd0514b6be4db50cU, 0xbe371cbabddbc355U, 0xbd899758bbc6e5c9U,
  0xbcce39d83d870771U, 0x3e00597e3e0b6466U, 0x3d1e5bd5be1ca91bU, 0x3ddb70c6bd1a9c50U,
  0xbe8c0e2d3e0215e9U, 0x3d25d9bfbd31e810U, 0x3cb7c26fbe0fad12U, 0x3d9f9c95bbe60078U,
  0xbdc8857bbe240535U, 0x3d16eb983ba95831U, 0xbdd65688bdd39713U, 0xbd851693bd559866U,
  0x3ceeb0433df90fb5U, 0x3c5ada393c9f9d27U, 0x3dfb87a63bd56f76U, 0x3d46d5cebdbfa0b5U,
  0x3e31bb8cbc061ae8U, 0xbe126ae73c63c8cbU, 0xbd1205efbc1f99e3U, 0x3c942f2bbd68bb9aU,
  0xbda840703b913d45U, 0xbdfb586fb86932acU, 0xbda717fdbe3f9367U, 0x3d193d2abd4215fdU,
  0xbd87eb983d62d2adU, 0xbe0e9f043df9a585U, 0xbd39180c3e47efd7U, 0x3beead49bd823e68U,
  0xbe23fa51bcd56592U, 0x3e2b45323dbca103U, 0x3db0f575bda43eb9U, 0x3d1b6ca4bd5e626fU,
  0xbd5d105abdfdd910U, 0xbe831b473d51c4f4U, 0xbe4c027ebe18df6cU, 0x3dcafd97bc6f8824U,
  0xbdb8a9fdbd52c364U, 0xbd50c84abda4ced1U, 0xbdd84b05be3c7727U, 0x3da2c03fbe09ed3fU,
  0xbdb76e5d3e007374U, 0x3c8c0fa23df17844U, 0x3e4a7da53dc06833U, 0x3bf5ee73bdf27813U,
  0xbe51ae77be02604fU, 0x3e34ed36bd47bdb0U, 0x3de412d5bc35f03dU, 0x3d78fd1fbe798cdcU,
  0x3e24307fbda16bd3U, 0xbc56bcddbd811e58U, 0xbe10c1a03c3b0bd3U, 0x3dc59a583d00f10cU,
  0xbc9a08ce3dd7d0a0U, 0x3c0a4cb23d85beabU, 0x3cbf1a313d0f0beaU, 0xbce0c6b1bc19e163U,
  0xbe564e2c3e304338U, 0xbd79dc253d965dacU, 0x3e580aa83d7c11ddU, 0x3d686e15be0cb11bU,
  0x3d876cb13dcb47abU, 0xbe0d376c3c51c23fU, 0x3c0b6779bc68e292U, 0xbd1348753c63197fU,
  0x3d3afb23bc0680a3U, 0x3d6af0353d5619c9U, 0x3de0a8d7be131c09U, 0xbd8af232bcc7a023U,
  0xbb41eec6bd626388U, 0xbe367af9bce45d38U, 0xbdca9467bd325616U, 0x3e023359bd8742b4U,
  0x3cbd81a73c789032U, 0xbd62ac363e04fe42U, 0xbd29170b3e6273f3U, 0xbd85ce62bdcbd800U,
  0xbd26fe403de9a364U, 0xbe80776e3da8acc3U, 0xbd715bcab94a45e0U, 0xbd2c77213cc9b5baU,
  0xbadd03adbe17a0beU, 0xbda9bc0b3c53996fU, 0xbd9a72abbe02d0b5U, 0x3d99b9503baaee65U,
  0xbdd47580be1005f1U, 0xbdb8aa94be366d84U, 0xbe26b724bc2c4d34U, 0x3e1cd94dbcc71140U,
  0xbd88dfdebda247a3U, 0x3d2bcaa5bb8123d7U, 0x3cb9fa9c3d8fe14dU, 0xbcada6bfbdf02f3bU,
  0xbe117524bdefc3bcU, 0xbe1d71753c9284feU, 0xbc42f035bcdbb205U, 0x3d85247fbd964f18U,
  0xbc57cf64bd305b59U, 0xbd1fa709bd3b2b6fU, 0xbe57f230bda560f9U, 0x3d8594993d7a841aU,
  0xbd219240bd5d96c6U, 0xbdd18dd2be192bd7U, 0xbd809a92bdb35688U, 0x394bac2ababd6087U,
  0xbd9bba743d0fa88dU, 0x3d13bb4b3dd63befU, 0x3dd35e0e3d430827U, 0x3d007a07be376808U,
  0x3cf84a7d3d8c1f52U, 0xbe1d676cbe061142U, 0x3cddfc64bdeee904U, 0x3d85dcd53dbf3aacU,
  0x3df45ee63de7e327U, 0xbd2b9cf4bdabed4bU, 0x3e0af4c2bdc275adU, 0xbdf74a023dd0095bU,
  0xbde94c77bde57286U, 0xbe3bc4e63c865953U, 0x3d955838bbbe6de3U, 0x3d74d4013c86a5fcU,
  0xbdc8c31bbd631252U, 0x3e1d792dbd619c17U, 0xbe25d0503e1babd0U, 0x3d62d97e3d366c8eU,
  0xbdc74b4b3d88b7e3U, 0xbe1e7077ba276efeU, 0xbd76d897bd92e28eU, 0xbdf04fd7ba71eafbU,
  0xbd5465b3bdf2b64dU, 0xbcbc00cfbd555273U, 0x3cfd2614bd8485b1U, 0x3cc895423d0a4b27U,
  0xbe195e22be60ba5cU, 0xbb70466fbd0df483U, 0xbe2bfac63cd35dabU, 0x3e2964a5bdbfa4bcU,
  0xbe70c5cabdc0fbd7U, 0x3da570a9bb0b9271U, 0xbe31b1113e5e446cU, 0x3caa7955be42d301U,
  0xbdc177e4bd9caf11U, 0xbe31ea6bbd559ddeU, 0xbd9fd121bdda6117U, 0x3cb731483da537d6U,
  0xbe124252be66e939U, 0x3dd690fb3da3d537U, 0xbdd959e2bd1a21ebU, 0x3d7eb7c53c2c1fd8U,
  0xbba85516bd9bb28dU, 0xbd77ce99be1d67c0U, 0xbe5b363f3cb0e964U, 0x3e276b94be00f6eaU,
  0xbdce73c33c78e955U, 0x3d8a3aa8bdaf9853U, 0xbc3d4b0f3e17fa40U, 0x3b8968d3be29a790U,
  0xbe0cee96bdca48b7U, 0xbc550ebdbe2559e9U, 0xbd29b2f23ccfd953U, 0x3dad7b8e3bb927e3U,
  0x3da2e029b89cc83aU, 0xbe4aeace3d714e9cU, 0xbe35db72be3901a3U, 0xbd5edd253d4aa710U,
  0x3be4f9fd3ccad1b5U, 0x3c08a43a3d89c542U, 0xbe4c50a9be4996bfU, 0xbd08d6dcbe1deb3fU,
  0xbd9b60d4bd9fa9aeU, 0xbda69e74bd91d2ccU, 0xbe4355bf3d301f57U, 0xbd915129bd5359ebU,
  0xbcd46cdcbe50db95U, 0x3dc91acdbdc1ae4dU, 0x3d777dba3d937f15U, 0x3ccc7e853d9e7cadU,
  0x3d668677be0e0a9eU, 0xbd8caea2bd0838d9U, 0xbe0c1441bdef0bb5U, 0xbe2749edbc91afb1U,
  0xbd42d1123da9941fU, 0x3d7bdf6b3df5e840U, 0xbe10835ebe2c6ed0U, 0xbd216d82baa1063bU,
  0x3dc84d993d1ed7d1U, 0xbdc44cf13cd148a2U, 0xbdcb579d3d4bd97dU, 0x3d53eb9d3d82a62dU,
  0xbdc97a94bdbcc372U, 0x3d847140bd949226U, 0xbdb22fe43d2aa205U, 0xbd028edfbd26067fU,
  0xbcd1e84fbda4dc00U, 0xbba41608bd840473U, 0xbc995bbfbe5996f5U, 0xbd1c9b283d7773d2U,
  0xbdc382adbcae6df6U, 0xbde1158dbba5964eU, 0xbdb4c01bbdee94d0U, 0xbd5f921c3d0f3f14U,
  0x3d7001033bbddb89U, 0xbc394e883d0f4287U, 0xbe0dcbeabd76bea1U, 0x3da3c7e93d30929fU,
  0x3d2a9a14bde5cc57U, 0x3da82e8abd1d18b9U, 0xbdb39234bde1c545U, 0x3d8d74313d9218d3U,
  0x3d17b16fbe2f3af1U, 0xbda291913dca30a3U, 0xbcf7e4febde31c50U, 0xbdfe3c02bdafa3e9U,
  0x3dc181a0bc0a4c2aU, 0xbba711553d4c0c33U, 0xbdc72eeabe16573dU, 0x3d0d3aacbe2857f2U,
  0x3cdee9babd5f0ed9U, 0xbda83d873d5275ecU, 0xbe464232bb6cbad0U, 0x3c0bd4813cc39e5fU,
  0x3d1e9225bd6a0dc7U, 0x3c223c6fbd975eedU, 0x3e1285a33db6875eU, 0x3d2466c83de4821cU,
  0x3d61275dbc2c9113U, 0xbde530813dc6748aU, 0x3d0e3030bdf54cacU, 0xbcdfd18cbc82831cU,
  0xbd1db7383c409ae3U, 0xbe290e3fbd099a92U, 0xbd6433d7bdecad83U, 0xbdfc6fe23ca21eddU,
  0xbd5719f0bbf40c93U, 0xbdfc9fc83d636b85U, 0xbc86c443bdcaea89U, 0x3cd5fb633d3f3ee1U,
  0x3e0f9894be2312a2U, 0x3dab31aebdb955f6U, 0x3d6e456abdc303baU, 0x3d5bc59b3e430e48U,
  0xbbca71a33ba92de3U, 0xbd31a9d3bd72a8d0U, 0xbd381286bdb88fecU, 0xbe010b9dbe3e963eU,
  0xbcc87b18be13cc3eU, 0x3e0cd8ef3dd86ef1U, 0xbd8913f83cc49ddbU, 0xbcb10833bdecfcf7U,
  0x3c81e8b8bda323aaU, 0xbe3a4f9cbd952a2cU, 0xbe06c33a3d0678d5U, 0x3d6444b73d04822aU,
  0xbb228e683bf03816U, 0xbd01b312be10f398U, 0xbdc031513c8dd6a7U, 0x3dc72a013c985db4U,
  0xbd3f3803bca6a8e7U, 0xbd339f5d3cc5661fU, 0x3d3b5971bdd2969aU, 0xbd91f65b3aa21187U,
  0x3d33bb3abd4c8951U, 0xbd5f17033d483175U, 0xbd4c0b5ebe030a67U, 0x3d1e9308bc8334dcU,
  0xbd5e3cdbbda1dca0U, 0xbdc6e6afbcac02dfU, 0xbe5102e33d98b157U, 0x3cb73061bdc5de72U,
  0xbda7bbc2bccfc4d1U, 0xbd39b93fbe05714eU, 0x3e052c483d8888dfU, 0x3c8c694bbc070f33U,
  0x3c9c5dca3c69946eU, 0xbe137ababd94b852U, 0x3e065d5d3cac77c7U, 0xbd4a459dbd730f49U,
  0xbd9f2474bdc466b3U, 0x3d1f3c2c3e35531bU, 0xbdb7ec10bb7c8861U, 0xbd4bc303bdf9db42U,
  0xbe16a351bd093d4eU, 0x3c134d24bdb56f5dU, 0x3c4002be3d4ab61eU, 0x3db45786bc3a7fbfU,
  0x3bfd2fd9bdb89900U, 0x3d97e375bcc2a145U, 0xbb870aa53d91391cU, 0x3cc587af3daacb37U,
  0x3dd92e94bbb77238U, 0xbddaa290bbca092eU, 0xbd1eb695bcaacffeU, 0x3b625b48be193de1U,
  0xbdaf6160bbf410a5U, 0x3e02cd573ddef65bU, 0xbd95a0b5bb75e181U, 0xbc8f118e3d89307fU,
  0xbdba0420bdc8b60eU, 0xbe0ace07bd8feb1dU, 0xbd8ff9a53dde21e0U, 0x3d9b59b5bd80320aU,
  0xbde5e97e3b3423edU, 0xbdcae450bddfd9e3U, 0x3d79ad64bbc5cdefU, 0xbdce9465bdf52160U,
  0x3c37906d3c4d5724U, 0xbd6be962be1ad7c4U, 0xbc0228b3bc34c689U, 0x3d123c7c3cd40849U,
  0xbbd6d1ff3c695149U, 0xbde7f3fb3dac157fU, 0x3d34a6ed3d921da2U, 0xbcf83450bdd0c823U,
  0xbd84a600bd50766cU, 0x3d97ffacbde00b6dU, 0x3d58073e3d696114U, 0xbd8f9c0bbd45661eU,
  0x3d1a72b43d844987U, 0xbcd65decbd49d09fU, 0xbda436d93d0acf91U, 0x3da9e9323d1c5647U,
  0x3b858124bd724689U, 0x3c87ffe4bd014192U, 0x3d354983bdf4bcd6U, 0xbc92a860bd8694e4U,
  0x3d535b3cbdac1dadU, 0xbd27b473bdaf30fbU, 0x3d5d5ca23c53d5ddU, 0xbbdafdb7be029617U,
  0x3d9ac95ebcd3e9d3U, 0xbdacb657bdc589bfU, 0x3d9fec10bcdd3986U, 0x3d8e3c793bb9e25bU,
  0xbc6b1342bb38255bU, 0xbd90f62ebdd0d4b0U, 0xbdb2bf5cbd7dfee2U, 0x3d9cd4d73cb7c26eU,
  0xbdab77af3c8e8ae6U, 0xbc8024183d2d135aU, 0x3c065451bc49e6d2U, 0xbd2b472fbd81c9eaU,
  0x3d473893bc4f7c2dU, 0xbb50476e3dc6f4f2U, 0xbd47a4193da77962U, 0xbba302ad3d52872aU,
  0x3d6451dbbd31e388U, 0x3ce9fb05bd9ccae8U, 0x3cccb9a13d22a096U, 0x3d847ed6bdf1b61fU,
  0x3d8d5a2dbd355dceU, 0x3d7d53a7bcad9e85U, 0x3d7288913b6f350cU, 0xbcb3f8be3c7bfb85U,
  0x3da3db4f3d9df9f2U, 0xbda4f465bd57704aU, 0xbc41e37fbcd2fed5U, 0x3c7df005be05fa8eU,
  0x3c9af741bd33ed32U, 0xbdc8bb80bdc1eb6eU, 0x3d26e35cbdc2a57eU, 0x3d2380c53d693ce8U,
  0xbc12bf5ebdf8d9b9U, 0x3dbf97bcbc8afa04U, 0xbe077f69bdaf0471U, 0x3d3ecb2b3cb65a02U,
  0xbc8f8ef4be00efc9U, 0x3d2f5aecbd807a10U, 0x3c5f260fbdd0b2c3U, 0xbda1c0dbbda0c2d7U,
  0xbc5b73bf3d7c4168U, 0x3c48d2e9bc9d0808U, 0xbce011b7bdcbd43fU, 0xbbadf8b5bdbc3aaeU,
  0x3cb3acfe3bcc4716U, 0x3ca75201bd9614a7U, 0x3d5851ccbdbd3fc1U, 0xbdeb6bf6bc24b483U,
  0xbc0789d43d32abbdU, 0xbda61b9f3c54270cU, 0xbdd49191bd502545U, 0x3cbe24063db8f0caU,
  0xbdea60cc3d9fe320U, 0xbc4f42fbbd4f5059U, 0x3d511830bd7ba856U, 0x3db73fa8bd181308U,
  0x3dac4bbf3da44023U, 0xbd32f64bbb869639U, 0x3d95aeecbd8a7daeU, 0xbd834e333c1f1044U,
  0x3c9d2a61bdce0fdcU, 0xbcebab593d915ecdU, 0xbdc6872dbd9cd387U, 0x3db80d5e3c970e22U,
  0x3d4b36553da1f726U, 0xbd1a8bae3d052cc0U, 0x3d785c27bdb54becU, 0xbd9284aebcc974d3U,
  0x3c0efda7bd87211cU, 0x3db0ec88bce6b481U, 0xbd49076dbde71134U, 0xbdc5758d3dc086a2U,
  0xbd53e17abdad897fU, 0x3c4e95473c9c0b6eU, 0x3dac2c68bbcab5c1U, 0xbcc75936bd2f5d46U,
  0xbdb3c7943bbd4cb6U, 0x3d4bb7e7bdc61b97U, 0xbdae013d3b9d0a2dU, 0x3d473f07bdfc5855U,
  0xbba55a69bd84727bU, 0x3ca9123d39f46359U, 0x3bc8de8abd21429eU, 0xbae5e0473d5fa952U,
  0xbe0393e5bdd8377eU, 0xbd2bf5113c1750cbU, 0x3d923136bd198188U, 0x3a838b0abdf44e72U,
  0x3d32c884bd5e2fa6U, 0x3d0f33d3bc809ff2U, 0x3dc43c973d49cfefU, 0x3bd51e2abc98f58cU,
  0x3daf90733cf452d8U, 0xbc81be5cbd62d8daU, 0xbda5f262bd4a05efU, 0x3d90b096bdaa2e8fU,
  0xbd6e2698bd9c7f5aU, 0xbcdeb577bc225bd8U, 0xbdedbbd13d2c7ec8U, 0xbdc34bc4bbc305b0U,
  0xbd8da9483c3e7461U, 0x3d1ad99d3d0c559cU, 0x3cfd2184bdc8436fU, 0xb8dce81b3c29a1a0U,
  0x3d4a4785bd5dcd23U, 0xbb8c3c83bbccc056U, 0xbdb782fdbd061736U, 0xbd0834f4bd159b22U,
  0xbd99160fbcf7754bU, 0xbda1d51e3df473c1U, 0x3d7314863d9dd98cU, 0xbdf80fbebbdaba48U,
  0x3d9b33c9bdd6a9ceU, 0xbd94455bbda9c913U, 0xba777ca53d848d84U, 0x3d520c2c3cb08f63U,
  0xbc890c9e3deba4bfU, 0x3ccc43c73d4b1841U, 0xbdb14c923c7a67c1U, 0xbdef9c35bdf1ce8fU,
  0x3db230903ac39d4cU, 0xbd81785fbc1b697dU, 0x3e4c1d213d4a9c1fU, 0xbe0784b3bd2a4e37U,
  0x3c32c0eb3d38833aU, 0x3dfc2d1f3de9c719U, 0x3d82369b3db8d29aU, 0xbe16251f3d290b0bU,
  0xbdc8e4cc3ce623c4U, 0xbdeefa443bfa2c93U, 0x3d119666bd46a302U, 0xbc2a88f4bd46ed1aU,
  0x3df33c0bbd4eb49eU, 0x3d8f9e45bd51b32dU, 0xbcd3663abd895c8cU, 0xbd995b783e1667d8U,
  0xbd6d8c033cd72f25U, 0x3b98e70a3ca01b12U, 0xbe20039dbd19de90U, 0x3d2f0ce83de358a7U,
  0xbd8f6126bdf09effU, 0xbde4ab29bdc85c87U, 0xbcda91e5be107ec5U, 0x3e151618bda62c7bU,
  0xbe5f28cfbde9fc9fU, 0xbd0b720a3da91974U, 0xbba1c6303e0af824U, 0xbdd137dfbd6e26d4U,
  0x3d981132be25402eU, 0x3c627298bc047530U, 0xbd0d97953d8db10bU, 0xbd282c063dfb5120U,
  0xbcd0602ebd50693dU, 0xbe390ffdbddb25f0U, 0x3cc1a85bbde61fa9U, 0x3c97a293bd9efee9U,
  0x3c3e5cd6bafda4a0U, 0x3ce6b05cbd0d07ccU, 0xbdef5d9fbc44148dU, 0x3e1c0e0abe538f72U,
  0xbc7043763e1177beU, 0xbdd35de53e25b8d5U, 0x3dd64d3ebc9009bbU, 0x3cda6326bdbd44daU,
  0xbe34f1f53d5baba7U, 0xbc2478803d387695U, 0x3e0aca4a3da445a5U, 0xbd2034f5bd869108U,
  0x3dead2f6bd6ecb8aU, 0xbd73f6c4bdd59a04U, 0x3d2cf32a3d00c7d0U, 0xbe8ded8bbd544e1cU,
  0x3dbfd8c73dab492aU, 0xbc713cfb3da9e7b9U, 0x3deac4493c6aaef7U, 0xbed74a493dd1e1afU,
  0xbd1395493d213a1fU, 0x3ceda752be5c20edU, 0x3dd6ac2dbd1c72b8U, 0x3dc278463dc96c30U,
  0x3dd1fdab3d95d124U, 0xbdf6e43cbd89c696U, 0xbdafdf60bdab7652U, 0xbe1305193de287e3U,
  0x3e235b24bc2a9849U, 0x3e4c39173d22f5b8U, 0x3db5feb93da1e424U, 0x3d8cf73a3dfe250bU,
  0xbd80e522bd20d64eU, 0xbe704226be7601baU, 0xbcd8864a3d8bb880U, 0xbd70b0833d88fac0U,
  0xbd8269d2bd7d247dU, 0x3c9ae194bcb3db9eU, 0xbe8a25c2bc322185U, 0xbe0b2cd83d0689f5U,
  0xbd50cdfebe1b418cU, 0x3b63846c3d9ae5f8U, 0x3c999a0abd099309U, 0xbd9c59d73d0f7cc3U,
  0xbbd535703bb86570U, 0xbde89819bd8428d7U, 0xbdad53b6be4d4500U, 0x3deeaf25bd95a579U,
  0xbb8651d0be1be0f3U, 0x3da43c9a3e6d44cbU, 0xbde2a05d3ccdf59dU, 0x3e557f2abe3c0eecU,
  0xbe17cec53d7eaef0U, 0xbe7942a2bc0e3492U, 0xbd0b01d43bf91326U, 0x3c2f88293cfde8e7U,
  0xbe8fb929bc523954U, 0x3d4d0608bc325474U, 0x3e1764ae3d5fff25U, 0x3da812a2bcfaf052U,
  0x3dc9da9a3d525f58U, 0xbdf8512abe350fb4U, 0x3d105ab93db1cb49U, 0xbe3a8e47be2ca6daU,
  0xbc81208138f919beU, 0x3de72bd43e4c5c20U, 0x3d4085a83de3bb94U, 0xbe9a9b0c3d805aecU,
  0xbd83d4f23cdd2049U, 0x3d40f334bdecab1bU, 0x3e2e895dbd8eac5eU, 0x3d91d7bcbd23e226U,
  0xbd23c5753e058628U, 0xbe13e636baf44194U, 0x3daf5b40bda0e0a7U, 0xbc3a12173c91dba7U,
  0x3e14433bbdc6e479U, 0x3e24b6c93ccf666eU, 0xbd09db703dfa80ccU, 0xbd9fffeb3e023705U,
  0xbd58634a3da2b1e1U, 0xbe575152be27d902U, 0x3dc67d103cd5ffd5U, 0xbe3dc2ba3e3d9064U,
  0xbd17ac79bca9b6bdU, 0xbe300641bce61488U, 0xbdf962babd34ae3eU, 0x3c91ea343db2c2ffU,
  0xbdaef7b73cf2b8c2U, 0x3d9b3e84bda64cceU, 0xbc69f5e6bdab8c29U, 0xbbfad9423e08e088U,
  0x3d54807abd581585U, 0x3d1f7d543daae8c4U, 0xbd535c4dbc59c1b3U, 0x3d1c662cbcdda133U,
  0xbd65f3e7bd38167cU, 0xbd42e8c43aeec3c5U, 0xbd6e8687bdf482cbU, 0x3d9771c83d9e3756U,
  0xb9918f36bda3af6eU, 0x3bcead9bbc800509U, 0xbdd7fff43cb17bafU, 0xbbf21484bd4dc346U,
  0x3cc733bdbd688cb0U, 0xbd2a71debd179837U, 0x3e73d2493c1c4b4eU, 0x3d5f275f3cfd930fU,
  0x3becb19dbd16f322U, 0xbce91a693deb5d95U, 0xbdb467e03de29c5eU, 0x3dedab32bde8767aU,
  0x3c62c67ebe81a6eaU, 0xbe19ca853d1c41a7U, 0xbe045b16bcc6c269U, 0x3c5fdd8bbdc78073U,
  0x3ccf4e433dc51f14U, 0xbd2d3d123d67e816U, 0x3d749e8cbd35d317U, 0xbd5e4f9cbc062685U,
  0xbd5e18d1bc58aceeU, 0xbe261ff03db9954eU, 0x3e41f4bfbdd2b17eU, 0x3d0bda3c3da5e055U,
  0x3d466f1b3d8ea4f7U, 0xbe2bc898bda90a36U, 0xbde25ea7b98f82b7U, 0xbd86cd4abe7cc177U,
  0x3d9a438cbeb68b02U, 0xbe3159bdbd840d7eU, 0xbd8d12eb3ce92871U, 0x3bdeb527be06c36cU,
  0x3d8fdb583ddf484dU, 0xbc3533663e24ed85U, 0xbd82986cbcc9d975U, 0x3d9d0b213e0290e8U,
  0xbd844c2ab933e2a8U, 0xbe57a8853daee4cdU, 0x3daeb8123d162982U, 0x3d3322873e509812U,
  0x3caec15bbcf322eaU, 0xbd6edf0fbe01f2f5U, 0xbd04ea863dd8a406U, 0xbd66ae4ebe3a83acU,
  0x3d31d026bea60439U, 0xbe24acb33b176a4fU, 0x3d3c1ec93d87441fU, 0x3d348f73be22b83eU,
  0x3d8c28853e4cd725U, 0xbbe0fe913e86c4cfU, 0x3c456be83d019993U, 0x3d75b35e3cef59d3U,
  0x3deae4b53d9f3ff7U, 0xbd77bcefbb303498U, 0x3deb7116bcc70772U, 0xbd02c7cdbe1bd684U,
  0x3e11def23c56ff09U, 0x3d29cb9dbd27fe7fU, 0x3da582f8bcdb35b0U, 0x3d879fc63e180227U,
  0xbd44cfb73e0d8113U, 0x3d1ea0cabdaee47cU, 0xbba6f4993c27f35fU, 0x3dac843abd4fdc02U,
  0x3ddf267abd794e51U, 0xbdb2331bbe2a9bc7U, 0xbcb0cc023de8175bU, 0xbdbb85e73c83f46cU,
  0x3e4e4f5bbb8f2d4eU, 0xbdd68e913da6d5beU, 0x3ccb870fbde08dc0U, 0x3e155ac03ddb5d54U,
  0xbd42fd54bb80f2acU, 0xbda7fddcbd0e8ae6U, 0xbe1b2db2bc81f997U, 0x3d5aad193dd29bafU,
  0xbe2b164c3d876c61U, 0x3bafef733e1ff76fU, 0xbd9e0e963d7cc33aU, 0x3dc0c123be1ea065U,
  0xbdbbee0bbe5ecde4U, 0xbdc60100bd928a97U, 0xbc8bc6febd384541U, 0xbcbf7d58bdca4e2fU,
  0x3d72c194bc891e68U, 0xbe7989673d940e70U, 0x3d88ea273c820e52U, 0x3d9324c03d96d08fU,
  0xbdc981f13da709e6U, 0x3b951ea1be1d3badU, 0xbdead148bad9a983U, 0x3d1b6a5e3d17007cU,
  0xbe02b3bf3d1e8a7cU, 0xbc9c57143e2f6072U, 0xbe68048abd99df2eU, 0x3df24d64bd250993U,
  0x3ae6169dbda9647bU, 0xbd2a58373d97769cU, 0xbc774a193db2565cU, 0xbd3525c4be0d9794U,
  0xbd40c17c3d0c0d29U, 0xbe71dff2be1e4c71U, 0x3d9410093db7a9c9U, 0xbd8f7ca3bda6c846U,
  0x3d1176293c6f23d1U, 0x3e24d26fbcdb49e6U, 0x3dea85e2bdaf232aU, 0xbe0a53893d4d5051U,
  0x3cdc55523e43b745U, 0xbdfaebb4be6385ecU, 0x3db9ae3a3ce83897U, 0xbe22625a3e17901aU,
  0x3db769ddbe2101beU, 0xbe09a99cbe174e47U, 0xbe00f61ebd0e5776U, 0xbd977ead3bf4aa21U,
  0xbd3daf653c6a10e0U, 0xbdeba809bc8bf23dU, 0x3d82841ebdef91fdU, 0xbd566786be2f93ddU,
  0xbd3dda7ebdf19ec2U, 0x3adcd42bbd3dc7fdU, 0x3e1cb89cbd4229adU, 0xbdd8cf823deae7c1U,
  0xbd3645193d2a2b1fU, 0xbdc78ee0be063499U, 0xbd1c49483cf724faU, 0xbd937d9b3d3cd20cU,
  0xbdd18c17be0fe380U, 0xbe1cc941be40bb52U, 0xbd8939c5be05ba67U, 0xbdb37a22bdcdf258U,
  0x3d7cceeb3d5832bfU, 0xbdfef178bd343bdeU, 0xbd472fedbe2389f7U, 0x3d316ca33c76d62cU,
  0xbd4fc9a4bdb93516U, 0x3d4fec133c0f940dU, 0x3cf2c9e7bdcc8964U, 0xbd0f813c3dd8d580U,
  0xbcc5c5693da07770U, 0xbdff8b56bd11a52aU, 0xbd102ffcbd421a83U, 0xbd2448f33d293fb5U,
  0xbe20f6c3be9952a1U, 0xbc2da645bde66038U, 0xbd9b1111bd03df64U, 0xbd2ebae13d4596b5U,
  0xbdd50bb6be8421afU, 0xbe2c535ebdf33f8eU, 0xbe0ce65b3d51b31bU, 0xbdd6cc4c3d700c0bU,
  0xbe275d69bdf876d0U, 0x3b5552603ca1a5b8U, 0x3b8d8df1be84def2U, 0x3c467284bc8caaccU,
  0xbc82c920bd96f33eU, 0xbd4494b4bc2437a0U, 0xbcb01f063d0cfc23U, 0x3dbee014bc18ee4dU,
  0x3e05ea4e3c26ee2fU, 0x3d7680ab3db69662U, 0x3c6ec9f4bda1f080U, 0xbd331925bdff0794U,
  0xbdcb063bbed2316eU, 0xbd8cdd613d61ec5dU, 0xbc2626323c99b738U, 0x3dadab533cf32eedU,
  0xbe1aece6b98fab2dU, 0xbd264ce23c519655U, 0x3dc1359bbd10cffeU, 0xbcd13d673dad9df4U,
  0x3d166388bc13bcb1U, 0x3e333c59bd8f4083U, 0xbd4216743e1842c7U, 0x3dce0b05bcd632c2U,
  0xbdef5fdbbd2854a4U, 0xbb20940fbdeccd22U, 0xbcee902ebdb90c92U, 0xbccd2332bc672ae7U,
  0x3de76a51bd1bfa18U, 0xbcba5b353d8c84a5U, 0x3d10c01dbd250cc4U, 0x3e150e30bda6cc46U,
  0xbdd01879bd82f462U, 0x3d4a84483de4c611U, 0x3e0f40a83d5fbc9eU, 0xbdb08f8dbb3c9c7cU,
  0x3d032ae2be1306faU, 0x3cdbdefbbd7a6bfaU, 0x3c53d3a03debba72U, 0xbd82cf00bd976b3bU,
  0x3cde05143b1652f4U, 0xbdf89b7cbe1ac498U, 0xbd3ab952be94482bU, 0xbd39e07c3bba4fbdU,
  0xbe0ba67fbeabe5f3U, 0x3c54632e3d9d3c09U, 0xbe1068e0bd582925U, 0x3d72fcd7bd972d85U,
  0xbdd602133e063cf3U, 0xbc317b113e3b0dd4U, 0xbdc24701bde57cb7U, 0x3db453773cf57c75U,
  0xbe042f58ba299ac7U, 0x3d2b8b143cfd3d37U, 0x3e044003bca11df3U, 0x3dc7fc41bd38975dU,
  0x3e67f0d23dd2514cU, 0x3e1f85c93d1de1e4U, 0x3d2a6bc9bdaa5c6bU, 0x3db3517bbe4399d6U,
  0x3c4c6b52be571425U, 0x3c1bc68c3cb9b5cdU, 0x3dd58519bd83f3afU, 0xbd4143bd3db160abU,
  0x3d2f82553e0aa4c0U, 0x3dcccfb63c8eb7f4U, 0xbd494039be079e1cU, 0xbb083c443e0acb94U,
  0x3d4974f23d9ccb1eU, 0xbc0361583dc8e9eaU, 0x3d7ddc043e133b64U, 0xbc447c2fbe053b7bU,
  0xbc00bace3dd6225cU, 0x3c5343703d09ab4aU, 0x3d502de1be226314U, 0x3d955c4bbdd768c4U,
  0x3da08e61be88f5e0U, 0xbce0a2073de6f103U, 0xbdc121f8bdd8a788U, 0x3d36c2ef3d5f209dU,
  0x3d35ec07bd1410d2U, 0xbbf55186bc06f645U, 0x3d654df23d2ba024U, 0x3ba6a64abd01bb5cU,
  0xbd569d473d81360aU, 0x3d3ed518bdb42dd5U, 0x3d18f8d03ddbf616U, 0xbd347b54bdda672cU,
  0xba6f4bad3d81bd22U, 0x3e368bb2bcc23dd7U, 0x3d90fa0ebdfb6f5aU, 0xbddab0f0be430f58U,
  0xbdd5d137be9b27f7U, 0xbbafb9fdbd312e3fU, 0xbdc06fe5bdccd31cU, 0x3db6c8c0beaeaeaaU,
  0x3d7d4ac33dd9876fU, 0xbd8f4e443e3ae0d4U, 0x3de9d679be33053bU, 0x3e00419a3ceebcf7U,
  0x3cedded93d2db8c8U, 0xbbbd5d0dbc147f7cU, 0x3de24ec0bcb44366U, 0xbd0ee977bbb84cf9U,
  0x3dc201af3c951939U, 0x3e379c51bd993f00U, 0x3a6cf6b83e20d77dU, 0xbd320b93bd4135f3U,
  0x3c3c1ec0be0a7384U, 0xbe1b02553dbb5e44U, 0xbd0886913c4b697bU, 0x3d4cf1b1beab823aU,
  0x3d9cda0c3de0dc42U, 0xbbde6d113c89b37fU, 0xbc5ed4183c276984U, 0xbbc46764b8d94c3aU,
  0xbd37200cbd5457b2U, 0x3e51d6563c2e4b61U, 0x3cc4500d3de99e59U, 0x3de56657bce1d9a5U,
  0xbe07189d3c97dd51U, 0x3c799c0dbdd5bfb5U, 0xbbed330abeb8caa0U, 0xbd039d4bbd9593bdU,
  0xbd42ef6c3db298d2U, 0x3c97ecacbbf43bc2U, 0xbdce3c47bd570d61U, 0x3d8c3f9cbe1fa5c4U,
  0x3ab7187f3d2d9335U, 0x3d009afabe910514U, 0x3ba9ce37b9710316U, 0xbd5b1c15bdd794eeU,
  0xbe0fa770bc87ce1fU, 0x3d64928bbd8e318fU, 0xbb79750b3d8453b0U, 0xbd9a71ccbc2c4583U,
  0xbd871ec03dcd0396U, 0x3e14b469bce9b6fbU, 0x3c7efa1ebdd1cdeaU, 0xbd9ff7c3be103f68U,
  0xbd3ba9fb3ce1a628U, 0xbd1cf7853da80cf6U, 0xbd9f4df53cc95b73U, 0xbc97fad33bc57b3fU,
  0x3d52d177bc711146U, 0x3be0ee3dbc9ac0f1U, 0x3b95e40b3c3cf79eU, 0x3d85bce3bd551511U,
  0x3c59f49f3d8c2c28U, 0xbd9caf813dc70a86U, 0xbd94da7bbd5eff4dU, 0x3da3514b3d1584acU,
  0x3d7776403c28dec3U, 0x3c8c49abbd239e5bU, 0xbca90b3fbe08c183U, 0xbd69746ebe05941dU,
  0xbd28c68bbc6a8fcfU, 0x3b9c7a58bdcbdd32U, 0xbd9a1fbcbdd91c44U, 0xbcf0f780bc73b38cU,
  0xbc006a2c3d8b0cadU, 0x399b67d4bd679271U, 0x3d8eb8e8b909e42dU, 0x3d8ebec1bdd268dfU,
  0xbd6c9881bd8b65e4U, 0xbd69feccbe2727e0U, 0xbdf03817bdb7cdb2U, 0x3d7094b13d8ad967U,
  0x3d1d8197bdc7996eU, 0xbd0b0ec5bdc84b92U, 0xbd66f8a4bd99a063U, 0x3d0ddc8e3cc3812eU,
  0xbdd9781f3d307705U, 0x3d138477bd5cdbd4U, 0xbd83bdda3dbc5213U, 0x3d6ceae53d3494bcU,
  0xbd06b2febdaf39e8U, 0xbdb41555bd8206bfU, 0xbdef1523bcacffcdU, 0x3c56105fbd8590d2U,
  0x3d0695d83d2636b8U, 0xbd5f10d5bb8fe85cU, 0x3d44d4283d98828eU, 0xbb4a16abbd8fd4f3U,
  0x3cc941f73c9121e0U, 0x3e141aa0bd289001U, 0x3b71861dbe2a6a7fU, 0x3d13fb133d8abc65U,
  0xbdfaf370bdaf52deU, 0x3d3aafd0bd806694U, 0x3d70d1efbcd30bd4U, 0x3dc6ec843c986e20U,
  0xbc47bbc1bbdae1c2U, 0x3bff6144bd9a4d23U, 0xbd1808a13cee82b5U, 0xbe0512a73c9e57d1U,
  0xbddccf2cbd930f9cU, 0xbd0730acbc99e02fU, 0xbd854bb63d10e8ceU, 0xbdcda830bcf5534eU,
  0xbd0a9bb6bd07e7f3U, 0x3d4e09a5bdc26369U, 0xbccfda573d2d071eU, 0xbddb91cc3d8f0846U,
  0xbddac775bdd00b7aU, 0x3d3496213c239456U, 0xbd69ed37bcb63c43U, 0x3d6cc8f83d830ff9U,
  0x3daebf47bdb081abU, 0x3d11d7e73ca81d45U, 0x3d9b7314bcde7905U, 0xbc0c2bb3bda1a874U,
  0xbd1e4be3bd04a4f8U, 0xbe0dee0b3da4c2f2U, 0xbd88f8a6bd6d4bf5U, 0x3d4274573c4f9f74U,
  0xbc0c33eabba3d378U, 0xbd486565be0db380U, 0xbdeee9073cc66af1U, 0xbd72fe72be065bbfU,
  0xba8937d2bded5c0dU, 0x3c19ec88bcd8d193U, 0x3bd98b333b7b6310U, 0x3cfe47d23dc41bd6U,
  0x3c9aa6d1bc2ecd5eU, 0xbc936fc5be081d2cU, 0x3db8d7e3be00dec7U, 0xbdc1499c3b0566e6U,
  0xbdd6c95f3d4f86cfU, 0xbe0a55823b4ae21fU, 0xbd21e19ebc5332c4U, 0x3cd0c243bddf48f1U,
  0x3d8981c8be01a7dfU, 0xbd9db48bbd04b2e3U, 0xbd955c73bdae6a3fU, 0xbcdbdc1dbdea4f23U,
  0xbccf4f9fbe19d651U, 0x3db9aa773d11a538U, 0xbd6eb5a1bd0ea2c5U, 0xbd63113f3d8890aeU,
  0x3d46cbff3c2653c0U, 0xbc829fbcbd916b62U, 0xbd0d256f3d029d34U, 0x3cb1a92abd7e5d68U,
  0xbd4a4b6f3d7f1035U, 0x3d63c22b3c0d31f4U, 0xbc028cb53d394250U, 0xbcb8b60dbda06d32U,
  0x3c8cf678bde33e4cU, 0xbdd2c6953cc2b60fU, 0xbdb44c8a3ca09371U, 0xbd08a69c3d7cad30U,
  0xbdaebcbbbb19eb62U, 0xbd61184b3d6dfe4fU, 0x3d117abb3d8363b4U, 0xbdb27378bcabc0a8U,
  0x3ce6f6eb3cea2e93U, 0xbe02514abd631a81U, 0x3c1dc317bdcdff11U, 0xbdf99edebd419a79U,
  0x3c6ecc823cf886f2U, 0x3b837ad2bd01217eU, 0xbab29132bdd01b4dU, 0xbdadae7e3d61937cU,
  0xbd221047bd376db1U, 0xbdae3892be2b0de7U, 0xbdec9d51be20dd64U, 0xbd7a3df7bdf67a37U,
  0xbddf7cd43da8ef65U, 0xbd28d06e3db5265cU, 0x3c76f89bbc2ee583U, 0xbd98d4e6bd20e8f8U,
  0x3d113613bda59ed4U, 0x3d0420f63b9838e5U, 0xbdc21d363cc900b1U, 0xbc8a06adbde7078bU,
  0xbd8abae1bd19324fU, 0xbc6fbed83caeb704U, 0xbcefbae2bd38ac18U, 0x3bf2f2603dbd7d3cU,
  0xbd9c8b523d3d652eU, 0xbc96f4eebde77241U, 0x3d8de40e3cfa5744U, 0xbd2e5c5dbe0245efU,
  0x3d88c649bdc0d885U, 0x3ca75c023caac858U, 0x3d766ef0bd0b42d6U, 0x3d88a7833b838cd5U,
  0x3a6f791dbd1da2dfU, 0xbdbefc353e8865caU, 0x3e90c464bcd6d92dU, 0xbe02d19d3e46a327U,
  0x3b34af043bac2e98U, 0xbd2d445cbe556658U, 0xbbd16fa63e48aeefU, 0xbd2f6624be34c0f7U,
  0xbdd56a993e576e61U, 0xbd80a5723d5752aaU, 0xbdc9edf5bcd7c8b9U, 0xbe54fd7cbd2596e8U,
  0x3cc609273d4d40dfU, 0x3de2ceb7be1753faU, 0x3de77873bc966aeeU, 0x3dc4dc403e004178U,
  0x3da4739cbd7eddd5U, 0xbdf953793e01afdcU, 0xbc237aa13cd57bfdU, 0xbdc80b4bbe94840dU,
  0xbd9aed2dbd79261dU, 0x3e016223bb5d727bU, 0xbe2942e33d7bae3cU, 0xbe1eb40ebc65118cU,
  0xbd284c70bdd10c0eU, 0x3e1727c8be19edd4U, 0xbd6d49003cd5ac2cU, 0x3d35792ebe060f8dU,
  0x3d612a2a3cae7510U, 0x3ddc2a7abccd2ae7U, 0xbdafae0b3da1584cU, 0xbb7e99203dc38ba5U,
  0xbc60c1d9beae83b0U, 0xbdfd224fbc9b1431U, 0xbe0803fd3df0f09eU, 0x3d9f6650be072eefU,
  0xbc7daf813df51d2bU, 0x3e25c521bc9c1d8eU, 0xbe168001be6314b5U, 0x3bc75a493e279a61U,
  0xbe0053f7be53e1b3U, 0x3e31fdedbd6ac9caU, 0xbd9a4b303da0b127U, 0x3def7371be4581d0U,
  0x3e4f130fbd309af4U, 0x3bb99c01bc50367fU, 0x3cbcc6a5bd2112ccU, 0x3c54450abcf73487U,
  0xbd5f87923e01bf0cU, 0xbd977938bdb92504U, 0x3df84ae13dd23062U, 0xbd54ee4abe050d7cU,
  0xbd2b00b6bd8772e7U, 0x3da16039be4b5c43U, 0xbd613a603c876566U, 0xbe745d753dedcc85U,
  0xbdfb5503be85698eU, 0x3dd09373be24cd50U, 0x3def13473d3aa32bU, 0xbe18cd3dbd44aab4U,
  0xbd3b90473c30631cU, 0x3db9e76dbdc83aafU, 0x3d2c850bbd59e286U, 0xbb6174803c197767U,
  0xbd3df137be445d1fU, 0xbd7456c9bda236c7U, 0xbe80b9ea3ccbf5e7U, 0x3e239869be27b81eU,
  0x3cc447b7bca354e7U, 0x3c234b19bdaa3e07U, 0xbe0b4d66bd216aadU, 0xbe100d973d8d60e4U,
  0x3dbc6c52be2e4170U, 0x3e3b55fbbbfe65b9U, 0x3defa190bd379ce5U, 0x3e398fcebe0e20d0U,
  0xbde4b8cabbb45e14U, 0x3da0a9bebdc7b846U, 0xbd2e0a113e0e0aceU, 0xbd8085543cb1b2f9U,
  0x3d2245e1bec3ac43U, 0xbd5bf467bd9edc25U, 0xbe4826233d46bbf5U, 0x3daa2ec3bd7ce569U,
  0x3dc9c9133c5743a2U, 0xbd6ef6f0bdfe35c8U, 0xbe0367d3bd83fbd2U, 0xbdd66e053d880e23U,
  0x3e3500bc3e1f2e82U, 0x3ea30d863dc4e853U, 0xbe4bf319bc0040e3U, 0x3e584d48be024ff4U,
  0x3e28bf723e32de42U, 0xbe22cc09be542e3aU, 0x3d4341f5ba49626fU, 0xbd411d7ebd9f57a3U,
  0xbd58479ebd8d4792U, 0xbd1cc0bfbdb6f242U, 0xbe04e3da3e289a1dU, 0x3dc0cbb43bd67025U,
  0xbd91b2ee3d802b6dU, 0xb8ec392cbea029c2U, 0x3b03e9623dbb00bcU, 0xbd405fbb3e506c19U,
  0x3ddf67e3bdf9d57cU, 0x3db2a823be27b172U, 0x3d31136a3e6091b2U, 0xbc9f8d683d4e3ea3U,
  0xbe8ca85fbce9ab2bU, 0xbe0d17a4be56737aU, 0xbdbc094e3d002ab9U, 0xbd1049bb3c5b9332U,
  0x3d60acf6bd3188a9U, 0x39d1c79ebe1ab65eU, 0x3de7e364bd997dcbU, 0x3d3b2d953c89fbf0U,
  0xbe77d5f83cabddcdU, 0xbe6166873d7a1249U, 0x3d0c844f3cfa2dfaU, 0xbd6da5d33d93045aU,
  0x3d616a81bd7b68d2U, 0x3e724f103e0e197eU, 0xbdf8cee63b47f312U, 0x3e3ca7e73d554f41U,
  0xbd3b6e603d32c011U, 0x3d61bbc23ca12b16U, 0x3d932d8f3e05bdf6U, 0xbbee6c993dea2b9cU,
  0x3d4f47023ca4da76U, 0x3b0aa98c3e03775aU, 0x3c2edb30bdb3fc29U, 0xbd7ff6c5bd981c07U,
  0xbb9fc115bdc32db7U, 0xbd86fa9e3aa08aeeU, 0xbd46f5ae3c2c3ab5U, 0xbd8f6807bdff4e4eU,
  0x3e36098c3de96e59U, 0x3da401293e11771dU, 0xbe4fa19cbd44421eU, 0x3d796616bc82807dU,
  0xbd7b2f2cbd379315U, 0xbd463a913dde5af4U, 0xbda2175a3d985976U, 0x3b10e7ef3e14cb08U,
  0xbc5993b13da7572dU, 0x3d418bb53cff0361U, 0x3dac909abd39f22aU, 0xbddacb8b3c0cae72U,
  0x3dfe7564bd7e7ca0U, 0xbcc7ccfa3cd629c4U, 0xbd1323623d788844U, 0xbd9340a8bd56e4f0U,
  0xbc3fd2413add3537U, 0x3dd6b7adba3684e0U, 0x3d414771bd0f40e0U, 0x3d832b1b3e04b777U,
  0x3d2cc6e33d7f36f7U, 0x3cbfbff73d6f5eeaU, 0x3d75a0223dbf509fU, 0x3d44cd373d9b8c37U,
  0xbdcefd3e3defe112U, 0x3b529ef03d0bac23U, 0xbe18f97fbbd0a87cU, 0xbd26d700bd9a1568U,
  0xbdad825fbde690baU, 0x3e0e305fbd76bd79U, 0xbd45595b3d1a8b29U, 0xbe2c774b3dccceecU,
  0xbdc5106dbe70700aU, 0x3e0b71edbdda9fa7U, 0xbc2f1db63e13ba16U, 0xbcbc73bf3d6d7f2cU,
  0x3caee3523e315d74U, 0x3e030760bdcd2f67U, 0xbe10ca24bd920bf2U, 0x3d819cfb3daea86bU,
  0xbd496ff33d21695cU, 0x3ce58621bd9a7772U, 0xbe664a863d4d1142U, 0x3c037eeebd98306fU,
  0xbcda7e453d517ddeU, 0xbccd117d3e096a85U, 0xbde9c156be2abed3U, 0xbdbb545b3e247ba1U,
  0x3cb0cc0fbe379d61U, 0x3d8b0791bde7f149U, 0x3cadc6163dced01aU, 0xbd933faabd2bf7ceU,
  0x3cb14272bdb06e19U, 0xbdbdccd43bd1b887U, 0x3d457c86bd6bf527U, 0xbc7d9cf73e9b1bedU,
  0xbb62c5ff3dbe6e43U, 0xbe01368dbd4df85bU, 0x3d8954b53d5eb366U, 0xbd059c44bdb3a965U,
  0xbdacb5423d29cd24U, 0x3e02d39d3e1914f7U, 0xbd7799e33d81cc04U, 0xbdcbf01c3d94c508U,
  0xbd84b3d9bdfffee6U, 0x3dcb9420bd770e0cU, 0xbd41a9933d93534cU, 0xbd99c8db3d30249cU,
  0x3cf08e653de72f1eU, 0xbdf5a651be175eeeU, 0xbde32995bd0e466eU, 0xbce811c9bca2ca65U,
  0xbd836f94bdb5f08dU, 0x3d3a05ebbe1ceb2eU, 0xbe6fb9073cd9bcc9U, 0x3d16ebbabe0a7fd4U,
  0xbdca71583dc150efU, 0xbd063ac43d3ec573U, 0xbda103fe3c1b1f1eU, 0xbdd34e2b3e44de8dU,
  0xbcffe67bbeb7d9f2U, 0x3e247582bd6f4f7dU, 0xbd236b5f3e228fc2U, 0x3cffd91cbc8c8468U,
  0x3d472b1a3d7d8cc7U, 0xbe0c7490bdb7191fU, 0xbe77af63bdf60260U, 0xba5b7982bd886094U,
  0xbd4b9b29be1563f1U, 0x3db72da73cc116acU, 0xbe4155833c53e56eU, 0x3c56a4103d9a199dU,
  0x3d51853a3e43d31cU, 0xbe3555b6bd49022bU, 0x3afca793be0aa307U, 0xbb9c2f763d324d52U,
  0x3d840e0abe161284U, 0xbe3048b3be2fe43dU, 0xbd6aa08b3b936dd8U, 0xbe02700cbe2fcc6cU,
  0x3e0594333df1dee4U, 0xbdb22e5dbd08da83U, 0xbd7c39a73cc54877U, 0xbdd6c1f23c6dc4a0U,
  0x3d8f389e3e121896U, 0x3cef8235be30a3c8U, 0xbc8103ee3e1065f0U, 0xbcd564f5be21c44fU,
  0x3d8f5034bd15bc75U, 0x3e91ff613e7ef90dU, 0xbe10b9bfbd8caed6U, 0xbe0175643db953aaU,
  0xbe4164e6be3ec655U, 0xbd8be840bcab4fb7U, 0x3d206d083d0305d2U, 0x3d503723bcff1659U,
  0x3d8cbf7e3ce4d79dU, 0x3d010ab2be1292c5U, 0xbe0a3fdc3c9f66bcU, 0x3df76967be987a91U,
  0x3da146a7bd89721bU, 0xbdaa69bcbbe9ba4dU, 0xbde760703d70ab26U, 0x3d11632ebd037aabU,
  0xbddb61bd3e160ef2U, 0x3d3534223dd7765bU, 0xbdfbdac3bdb8c742U, 0xbc51c37e3d4a8657U,
  0xbb5ae68fbdfbed47U, 0xbd1a0028be1b3f38U, 0xbde276e73d53fc6eU, 0xbde811c1be3b713bU,
  0xbca4d88d3d1b754cU, 0x3d648b65be41ec96U, 0xbe425dcebcbe270dU, 0xbd269f8dbe74ae32U,
  0x3d957a14be0c278eU, 0xbe096d113e705303U, 0xbd9c3984be3dd6d1U, 0xbd8332ec3d769e1bU,
  0xbd7f46ce3da54eb9U, 0xbd7e4024bc2b45fbU, 0xbd72d4453d0e5a78U, 0x3e3c2effbe6c8af9U,
  0x3d02f3dd3dda15beU, 0xbe509066bcf946e8U, 0xbe026a7abcdffd10U, 0xbd6d7f6fbe091799U,
  0xbd918f7ebddebec1U, 0x3e0a58e7bd96c8b3U, 0xbbf0a0c83da1af3dU, 0xbdd0b154bd95226aU,
  0x3d9bb438bd099bfdU, 0x3e52d9883c271e3eU, 0xbd1c4b4b3d9c236eU, 0x3df89d77bc66307bU,
  0xbde371bc3dbc01dbU, 0x3aaf5110be741323U, 0xbcb6759abd700485U, 0x3d8159603e2c75b8U,
  0xbb9fc2ebbcf0acedU, 0x3e23431cbd23c8d8U, 0xbdf71e703d8d4871U, 0x3e1bb6683d4814beU,
  0xbd84bceb3dd024e5U, 0xbdb01610bd44652eU, 0x3e0aa646be161b32U, 0x3d84fc82bc1d4cfdU,
  0xbde30c093df03b15U, 0xbed79e4fbd810b07U, 0x3da527b9bdc189fbU, 0xbe80bd38be20181bU,
  0xbd8bb2f3bd49db5bU, 0xbd2902c13b2e6889U, 0x3d1a48e9bbb2e324U, 0xbe051d98bdfe4ef9U,
  0x3c6231543d34c3b6U, 0x3d88de7ebdb290b3U, 0x3e567d41bdc820a7U, 0x3c81e612bde308edU,
  0x3dd3b9efbce2db9fU, 0x3d3f26de3da87f33U, 0x3d78b6063bb987a4U, 0xbd4feb6ebcce24e2U,
  0xbdb359403dfd3980U, 0x3d37b604be0847c8U, 0x3d7967b0bdbad17cU, 0x3e15bbdc3dbaf56cU,
  0xbc555192bc5aa496U, 0x3d87485ebc674b84U, 0xbd9ae3bb3dd1f835U, 0xbd55ae383bfe4f12U,
  0xbd9b7e33be0a8888U, 0xbd314f3abd2a651fU, 0xbe0247fd3e4f6c70U, 0xbdc666063d8240d7U,
  0xbe5c2b0dbe95bae9U, 0xbe376a12bb73c289U, 0x3cf2c055bc3e4b68U, 0xbd0f50a8bd291267U,
  0xbd577c34bdb8af29U, 0x3ea4097d3d4f87a0U, 0xbe13adf9bd8dd4e5U, 0x3d8911323e71d603U,
  0xbe22eb15bbd39556U, 0xbe046ce0bdec327cU, 0xbe0bb2c03d9a07dcU, 0x3de74744be20756eU,
  0x3e06cbc23d5bf10fU, 0x3d167d8f3dfffd79U, 0xbe452bbdbd99c635U, 0xbd5e94a4bdaab09fU,
  0xbe4c2cdb3e304fbfU, 0x3dd077d8bd02bc5eU, 0x3dbc2cf9bdcf8efaU, 0x3dbd386e3caea3d0U,
  0xbce33d913c55e0ecU, 0xbe91dd653cafd749U, 0x3e2d85a0bd7e3673U, 0xbe797bc0be93d200U,
  0xbd41c3f5bdbd979fU, 0x3dbf123d3dfa4b8cU, 0x3c9123a53d4e886dU, 0xbd813ae6bdefce68U,
  0xbe333ffb3cc5ce8fU, 0xbcbeede23b6dac4bU, 0x3e8d89e3bd9bf1bdU, 0x3d61d58cbda757d2U,
  0x3d448550bc1fd609U, 0x3ddd848d3d369167U, 0x3e065d29bbccc946U, 0x3d900936bc27d614U,
  0xbe1c7e4ebd30b481U, 0x3dfb87b2bd0d5b67U, 0xbcabf83f3d883a47U, 0x3d419d3b3e9d4bf3U,
  0xbd725ad2bd8dfffbU, 0x3c33cbd2bdeee3cdU, 0x3d7ffc8f3d7af4d4U, 0x3d1c1ed23e38ca74U,
  0xbe2f2e48bd78c789U, 0xbe21948cbda7a565U, 0xbda407093d90244fU, 0x3bc1e3493dc6be18U,
  0xbd2428febb0ad20cU, 0xbe1a1ff23cb66659U, 0xb7f43ac03d8e217cU, 0xbcc989953e16de24U,
  0xbb4988763d0f776dU, 0x3e1bfb7ebcb7cf29U, 0xbdae418ebdfc10caU, 0x3e2981e13e4b743bU,
  0xbdd64823be32c7aeU, 0xbe2963debe0ffb53U, 0xbdb964613d4767d4U, 0xbcb61959bdbb161eU,
  0x3d873956bdabb4a8U, 0xbdbd593a3d8bb6d4U, 0xbe1c113cbdb3403eU, 0xbda61be13ae4bb89U,
  0xbd4cfb25bda2730eU, 0xbe6a3a773c555e02U, 0xbcb96077bcd0d470U, 0xbc8dd0d43dc58543U,
  0x3ddfe6fbbc4bd8b6U, 0xbc0dff74bd9677b8U, 0x3e4791f53dc46bf8U, 0xbdbe4cd6bf080498U,
  0xbe1962b83e2ca767U, 0x3e0fd4443e163284U, 0x3db982cbbe19fc82U, 0x3d328eeb3e2b3d59U,
  0xbe220d40bd85a919U, 0xbd1707aabdecc567U, 0x3e03c8263bc4363fU, 0xbde015cdbcb6d6aeU,
  0xb9559c443d5a65d8U, 0xbd50b3bc3d4ddd15U, 0x3e17039b3d306866U, 0xbbf3d145bc543c4fU,
  0xbdd59615be1c4501U, 0xbd850d21bd409e5eU, 0xbe4e9e0d3d3dc293U, 0xbd2723e03e812568U,
  0xbd96b1ef3dc94e22U, 0x3d9b247dbe587e21U, 0x3d885665bcb8cd92U, 0xbd26049ebd2b5294U,
  0x3eb077073d815c0cU, 0xbe9ee8243b879f5dU, 0xbd00c5563d91b836U, 0x3e16bc2f3d754eabU,
  0xbd5c66bfbcdaef1fU, 0xbc3a675abd778f92U, 0xbd6b4338be400a16U, 0xbd33a827bc15912fU,
  0x3c59c301bcadc9a7U, 0x3bba37113e055de7U, 0xbea11bf0bd8a737bU, 0xbda5d4a23d818ca8U,
  0x3d0ceb093cb39e31U, 0xbd449bfa3de74631U, 0xbd2373c2be4d492bU, 0x3db86de1be4f99a6U,
  0x3e4aecc4be110320U, 0x3d0c0265bc8890f7U, 0xbdc9040f3e23cfa1U, 0xbdcada2dbc6cfb06U,
  0x3df0e8c1bd093293U, 0x3dd03354bda22dd2U, 0x3d9057b3be03e015U, 0x3d8cbc763d9b160dU,
  0x3dcb7e953c95c50eU, 0xbcf8451ebe1af442U, 0xbd763967bbb5594aU, 0x3b5cc5e83cab4201U,
  0xbd758d9dbd6e5a8cU, 0xbd640f8bbd92d8b0U, 0xbcae6025be9cbd47U, 0x3c83ce78be350844U,
  0x3e325e6fbe1506cdU, 0x3e0216bdbc560ef3U, 0xbd4453d43dad3c80U, 0x3ab392d5bd5793d4U,
  0xbd0ef4853d191c4aU, 0xbb16f644be210727U, 0x3da265d0be5ed876U, 0x3def7dc4bb699002U,
  0x3d1caff0be12945aU, 0x3ba75e17be5ea337U, 0x3b6b70113d8aac3fU, 0xbdfb6c94bc831e6aU,
  0xbd98e2e63d5b2afaU, 0x3dd1709cbe216d42U, 0xbb08fee0be0f25f3U, 0x3cad0bfd3cc906e2U,
  0x3c1f41c4be4c9c16U, 0x3d041d36bd1ae8a4U, 0xbe0923ae3e29c997U, 0x3db61b0fbd0e2b1cU,
  0xbea5facfbe543adaU, 0xbb4743d83d7f3c20U, 0xbd87000fbdc4e557U, 0x3d9a16eebdcfa179U,
  0x3daf45c9bb5aa775U, 0xbce0edf53e1a28bdU, 0x3da5b0a5bd6e56e8U, 0xbde12f213dec827dU,
  0x3d86422d3d35b016U, 0xbdac987e3c3cf70fU, 0x3b010a40be65c8d9U, 0xbd4fdcfdbe0ae23aU,
  0x3e6e9b933a976f63U, 0x3d2ed0123df81433U, 0xbdf741063c3a948cU, 0x3c3c16d338bc1301U,
  0xbe9ce1eabe463b9eU, 0xbddc839abd43b763U, 0xbd0088fcbe00d82fU, 0x3d972492bd30e236U,
  0x3c37d1f53d0551e9U, 0xbc861c29be0186c4U, 0x3e341501bde8af95U, 0xbd653db53d9343a9U,
  0xbdc2132e3d828d8eU, 0x3c9631a8be6ef17dU, 0x3d89e718be6695a8U, 0xbe33daf23d5b9fe6U,
  0x3d320def3d6e1debU, 0x3d1e4a5bbd83d27aU, 0xbe580addbe25b127U, 0xbdb5eb4f3d3836c5U,
  0xbe1b47103def3673U, 0xbde10cbabd7857d6U, 0x3d81a28f3ce736ebU, 0xbd4c64bbbd3898f9U,
  0x3db1353e3d33151eU, 0x3dadcfcc3ce50761U, 0x3d805bfebd4773e7U, 0xbe3865f93c6dd5fbU,
  0xbb80725c3da63e06U, 0x3e23d0bb3d0117e0U, 0x3e059257be68bc7cU, 0xbe0c80843e29d791U,
  0xbd6249843cdc2df4U, 0x3dd16e64bdd59e79U, 0xbd94c88a3d550e1cU, 0x3d85e16b3b8b99f7U,
  0x3d7072f8be463dd6U, 0x3d474d473ddee151U, 0x3de081b2bda1e6acU, 0xbd585e99bd1879adU,
  0xb99481e03c39b5f7U, 0xbde2ee923df23c93U, 0x3e6c9254be9150ffU, 0xbdf68a89bd99d7d6U,
  0xbd7b0270be3ab925U, 0xbdbe83fd3d9139e6U, 0xbd1077753d552057U, 0x3da54f24bda28332U,
  0x3c6325bb3df1e9bbU, 0xbd8c991a3df70407U, 0xbd0c2e87be4524c8U, 0x3cf1890cbdba83aaU,
  0xbb26b0aabe8a78b2U, 0x3dcb78d6bdb517bfU, 0x3d2fa6e5bdb178e0U, 0xbdbd16adbd63c536U,
  0xbd6a22b93d06db96U, 0xbd345e5cbe2aede3U, 0x3e1388b0bc7a0971U, 0xbe2d7827be4f20c6U,
  0xbe0d5af3be68e035U, 0xbdaaf10fbe0ebb97U, 0xbcf96be1be025460U, 0xbe4d30a5bd4af5f1U,
  0xbe0b44633c230ab3U, 0x3dceae123e1c2d08U, 0xbe58147ebdf9609eU, 0xbd515ffabd0582ffU,
  0xbe5c2f2b3e002435U, 0x3cb53d93be55625aU, 0xbd856190bdb02a96U, 0x3d116cc63d5de44eU,
  0x3dd143e2bd28b3acU, 0x3b9e1f4cbdaf51faU, 0x3d26627e3a8db080U, 0xbe731d9dbe8499dbU,
  0xbb8b464ebe31cd44U, 0x3dadbdaa3c16e788U, 0x3d77b6f5bdeafc9aU, 0xbde4c2ef3d59ffc2U,
  0xbdb872fb3de6ffaeU, 0xbd328623bd234587U, 0xbd44689dbba8abe5U, 0x3d841a73bdd054c5U,
  0x3c69e6503dfae786U, 0x3c2076d03ce1d0a3U, 0xbdcde10d3d162f96U, 0xbcea5900be505cc1U,
  0x3cd70607bd2f0e9bU, 0x3e10a5abbdd5cdb8U, 0x3db698243d223539U, 0xbdd249fbbda89f7eU,
  0xbcb888e8ba73ace0U, 0xbdbe6aa3be3bfbb8U, 0x3d9407fb3b698572U, 0xbe9be0fc3dfa3b2cU,
  0x3dc1c0713d79836cU, 0xbde80b43bda29a50U, 0x3d2a7c393ddfc5caU, 0xbd2c2f6e3b883133U,
  0x3ce6b0d63cfb756dU, 0x3a4b6af0bd0142b7U, 0xbd729c463d13ca25U, 0xbdb2bc2cbd2b6265U,
  0x3b8774c1be054d30U, 0x3d7d3768bec3be78U, 0x3e27fee93da78c52U, 0xbd8f1b1c3db67773U,
  0x3de621853db9b4aaU, 0xbdeb7c57be08853eU, 0xbd819472be5fc999U, 0xbeabca193d800989U,
  0x3d0579ffbe151a71U, 0x3e02d466bc36a7dfU, 0xbe23ecc5bd21c1f1U, 0x3d92cbcbbdf7e577U,
  0x3d82243d3cb74259U, 0x3d025cf2bd24b3c8U, 0x3c38fc5abc80597fU, 0x3ce3a1f2bdc3919cU,
  0xbdbb677dbde26b2dU, 0x3d0229dbbe2c6519U, 0xbd352ba5bdf496fdU, 0x3c86e82bbb9b68f5U,
  0x3da3a524bde1b089U, 0xbe2045da3e1ac61aU, 0xbe2e89bbbe93ff87U, 0xbdb488553d1976aaU,
  0xbdb43038bdb52e12U, 0x3e9807503e4e2224U, 0xbe3892003e1b6ce8U, 0x3d6d7a7abe7ac4b4U,
  0x3d385c7c3d644e9eU, 0xbdd10024bcf3cefeU, 0xbdba59343d987d01U, 0x3dc03974ba3f255aU,
  0x3c57eaf33e02db1eU, 0x3d6eea43be9e6376U, 0x3d1d86013d95432bU, 0x3d8481c0bd293c70U,
  0x3dc36d50bd94f660U, 0xbe37e9a9bd36d402U, 0x3e0985533dcf5864U, 0xbe26fa7dbd1126d2U,
  0x3c8453273c6b3fddU, 0x3dac8256be306653U, 0x3d108a003d2335b2U, 0x3db414d7bca40865U,
  0xbd35a0b83d0f38e4U, 0xbd376ff73c1ec60bU, 0x3d99bad23b5da87fU, 0xbcc3c4bfbe0af1e3U,
  0xbd502528bdb6b762U, 0xbbb4c7dabec4e929U, 0x3d65ac933d8439b6U, 0xbe52e8f6bcaeeef0U,
  0xbe37fb093d3323a4U, 0xbde92635be6d93afU, 0x3e05660bbe0298e3U, 0xbf0038533da489edU,
  0x3cf2d8953c8a46f6U, 0x3e455600bddfea76U, 0xbe119e9fbd0651e4U, 0xbc672da7be16eb4cU,
  0xbe063f923e1ca2e1U, 0x3e6dae3ebd6240edU, 0x3c9a1efabd3cb28bU, 0x3d5cc04c3d1383e7U,
  0x3ccdeb6ebda87e75U, 0xbd77e676be2912d8U, 0xbda15eb4bd731852U, 0xbcf7b4f1bc03f6f3U,
  0x3e81b69d3dbec588U, 0xbea8acbfbdb62767U, 0x3d9b4fd2be42ba3bU, 0xbe21bf653d8daca7U,
  0x3d7c088f3c08e8faU, 0xbd0703093d46dfcfU, 0xbdf033453dcd7ed9U, 0xbdc729f7be94cb6cU,
  0xbd230d503d224011U, 0xbe06a4f03ad31d79U, 0xbdf4c70ebd3b396aU, 0xbcb60e743d02886bU,
  0x3b56f7413e07b984U, 0x3c010f2ebe023f07U, 0xbe8945f13d59dc23U, 0x3e04c3c33de600b9U,
  0x3dae7e14bb52a47bU, 0xbd0c80dbbcef8fbeU, 0x3d4c0f883e247f1cU, 0x3d5030653b6a777fU,
  0xbe104e3fbced1349U, 0x3e2e6e7cbe17ffcbU, 0x3dc44f253d2337c2U, 0x3c9ee1db3dbbc8baU,
  0x3ca348f23d7c3c57U, 0x3cbae6a13ca39457U, 0xbb481222bb67a490U, 0x3d5c37f53b284db3U,
  0x3de00395bd9134d3U, 0x3c0ff1a5bea15305U, 0x3da789bfbd7ce9d1U, 0xbd5e30fbbd806e11U,
  0xbd15b2143e272723U, 0xbd27a3bcbda073f8U, 0x3dbdf7a33d86d804U, 0xbe880b403db75ed9U,
  0xbda2a6693d276293U, 0x3df9e90cbdd0000bU, 0xbd33801cbc4b99a5U, 0x3d74c7b0be134a8cU,
  0xbd734cdc3d973efdU, 0x3dd7dc4fbd0d09c0U, 0xbd020a80bcbc96eaU, 0xbdaad5153d609696U,
  0xbdb1ef22be1f7d8fU, 0x3d1afbf03e0c3869U, 0x3dd90d7e3d3cff33U, 0xbe845b70bd9ed1beU,
  0x3eb6510c3d682315U, 0xbe0e19ddbdf184b1U, 0x3dddd74cbda584c1U, 0xbe550cca3e2d0c0bU,
  0x3d6e37d93c11863fU, 0x3ddc027f3c57eaf8U, 0xbe7cd68f3d9a0553U, 0x3dc9b09fbd4d0f31U,
  0xbbea045ebdc5d810U, 0x3e198c9b3c187cc2U, 0xbd75e9e1be124b96U, 0xbdaafc5e3de27d5cU,
  0x3d6032a53dc0c984U, 0x3e046bc43d935ffdU, 0xbc0384debdd28d22U, 0x3d265dea3de043bbU,
  0xbccdd53abce4bb66U, 0xbd2096f5bd5551acU, 0xbe231dcebd8c0b45U, 0x3dd47dc5be074377U,
  0x3e22a72dbd78e18dU, 0x3db2db6cbca1c107U, 0xbe4b15eb3d17eb5aU, 0xbda9bd68bcb9be8aU,
  0xbe8d095d3dd1f466U, 0x3d1f0c37bdcf2ee7U, 0xbdd401ffbce156daU, 0x3d1508cfbd1d03c5U,
  0xbe01b73abd837c06U, 0xbe908436bd840f4dU, 0x3e060ed63d9f314bU, 0xbd4b5747beb60b7eU,
  0xbe5735403dba0a65U, 0x3c8f52d53e1b4d57U, 0x3d464ab63c102d4bU, 0xbea065ef3db6c9d7U,
  0xbdf8072ebe0f539eU, 0x3e01757cbd9b4e63U, 0x3de78dcfbd8fbbcbU, 0x398ab4d8bd171676U,
  0xbdb68146be13ecd4U, 0xbce6d20bbc9e719dU, 0xbd48a44c3d3aa3d0U, 0xbcb920fc3d62f39cU,
  0xbe1095a2bd843599U, 0x3e223d973cc400e7U, 0xbd9b0fcfbd363967U, 0xbc0678983d63e581U,
  0xbd9b2b71bce1d4a3U, 0xbdad53aa3c8cef9cU, 0x3c85092e3db957b7U, 0x3dfb9bc73d05fb44U,
  0xbd82df29bdb7e2a2U, 0x3d0aeea9bcd4caadU, 0xbe5bf8273d8c8fdaU, 0x3c6173dc3cad7b1aU,
  0xbdb7f3f9be7b7968U, 0x3da16eefbbec1b08U, 0x3d3af21bbd87f20eU, 0xba9646e53e15ec2dU,
  0x3ddfb3713d96325cU, 0x3ddccf133e13cc2aU, 0x3b002aa13d918c3cU, 0x3d3d2a573deb9335U,
  0x3b845c84bd5adcb6U, 0xbd0aea933dd23186U, 0xbe3a1faf3d59738eU, 0xbcbf04313c62ab19U,
  0xbde550633da2def1U, 0x3db09cd13e08d170U, 0xbdb878523d5c97afU, 0x3cc510ebbd8b65b4U,
  0xbe777c5a3d2babd7U, 0x3dcc97ec3c86fa17U, 0xbc95c44fbe0288f2U, 0x3cadcfe9bd246f58U,
  0xbc0c9b66bdaf1439U, 0xbe4fe81bbe310f2eU, 0x3e3181583e031477U, 0xbe44ed33bea4b9d1U,
  0xbbd0e328be0321c2U, 0xbc4547b33d64f3c0U, 0x3df33a3fbd953aa6U, 0xbe7e2e043d8047c2U,
  0xbdc2fd283c336af5U, 0x3dbe4357bda65f84U, 0xbcedabf7bd4a86f4U, 0xbc13ec4abdd81103U,
  0xbdd655d1be3eb5d8U, 0x3e30ab453bf95322U, 0xbc068cbfbdb68462U, 0x3b469b3abde8be10U,
  0xbc4f6f993d8dd86aU, 0x3b8ed9af3de38719U, 0xbe6516dfbd8991b5U, 0x3dcd956b3e2892b0U,
  0xbe4a0fc2bd862ed7U, 0xbdc325e63cc79ab8U, 0xbd99b1fdbd6b1d14U, 0x3d88c4463d55d89fU,
  0xbdfff7903d1c739aU, 0x396f88993e19aed5U, 0xbe7ccf8dbd8448b9U, 0xbdf2853bbe09917eU,
  0xbd791293bd844ea1U, 0x3de2089abe1be2b2U, 0x3d6be8c2bc784c5dU, 0xbd342419bdcfef17U,
  0x3cc60f35bd17ab4bU, 0x3b3e068a3dd1f5c9U, 0xbd511de23d360c31U, 0x3d08343a3e31194fU,
  0xbd9bd2393ce4a21aU, 0xbdc0b96d3e1aaebaU, 0xbca5d3603d7ca27bU, 0xbcddec56bda25e4fU,
  0x3c1a1f443d4dc578U, 0x3e4b60ea3deecee7U, 0xbe418f6fbc9c4da5U, 0x3d476467be40a156U,
  0xbdc9d4883d848e73U, 0x3d33a4d6bdd472acU, 0x3e2c30a73ccb23b9U, 0x3de6b178bc09d2edU,
  0x3d05a06b3d7343a6U, 0xbde40528bd87fd0bU, 0x3df78ef6bc23800bU, 0xbdaff7e1beaa0d45U,
  0xbe5b9a8d3d914effU, 0xbd97d8183dbdad75U, 0x3e1728fbbe0330f2U, 0xbe026c0dbc301e3fU,
  0xbe1bd8803c8cfaecU, 0x3ddbc101be033979U, 0x3dfe8c8abdf3df8cU, 0xbde10298be624b70U,
  0x3c29c471be1348efU, 0xbdf1d564bc1aa450U, 0xbdfb7f883cc78ff0U, 0xbb8109bfbdc45ce5U,
  0xbc6d67843d4ab25cU, 0x3dc261dcbdd2c389U, 0xbe7b09e43ddbb4d2U, 0x3df3801e3e0bd22aU,
  0xbdc1841fbd5ed405U, 0x3db2e676bda3a72aU, 0xbd2e37cebd117034U, 0x3c79a675bc8a4914U,
  0x3d7cb61abdc3281dU, 0x3e0683133dd7787dU, 0xbd7771b43c06c411U, 0xbc22ebbfbe085abdU,
  0xbd01d989bd766c34U, 0x3cf20e933d6f1e9dU, 0x3dbc55bdbdccaff6U, 0x3dc46b1e3cbda25eU,
  0x3c3ee9d33d8a7edfU, 0x3ca95079bd71d0c3U, 0xbd246959bd1b97a1U, 0xbdc482343db5ccbfU,
  0x3d05136bbd0b18fcU, 0xbd8dc5213d7f5814U, 0xbc3e2003bd9089f6U, 0x3dc9fbf73d80e6c6U,
  0xbc9a394b3cbe3828U, 0x3cfd58393da434daU, 0xbdfb20e93d9d36eeU, 0xbdf834e13d85f333U,
  0xbc65fb50bd88cf56U, 0x3db5d9e1bdd442a1U, 0xbd9d302cbdfc094eU, 0x3d766a68bd93ba01U,
  0x3db8d106bd5e5404U, 0xbdf0975cbd0f63d5U, 0x3d1c1871bd64128dU, 0xbc8ee7b4bcf647a5U,
  0x3cd576a43d416543U, 0x3dfa7ab63c91dd12U, 0x3aaed248bd439e99U, 0xbd810626bd9591d3U,
  0x3cdb30ed3b989b8bU, 0x3be1a0cd3d0da893U, 0x3d6d7990bd64a815U, 0x3d3876abbd65544eU,
  0x3d94ccc9bba8f638U, 0x3dbc0109bd69039aU, 0xbda03c793d0e3ff3U, 0xbdb9349f3da8eca3U,
  0xbd36989c3c26c2bcU, 0xbd82ba063cd7084cU, 0xbdce7973bad21c38U, 0xbc865ab83d8b5dcfU,
  0xbd663561bdaa0b5eU, 0xbda59c443c850b85U, 0x3dafab20bde93444U, 0xbc8ea5ad3d1d12c4U,
  0x3d0b495b3b758019U, 0xbd4a008abcc49e8fU, 0xbd971078bb84a6b4U, 0xbc794607bd7e6134U,
  0x3b05cf9c3d14a8b7U, 0xbd6392f2bd67e97aU, 0x3ba78728bcf4f5acU, 0xbb747ae0bdaef427U,
  0xbc9bd74e3d224084U, 0x3d67793c3d29662eU, 0xbd64e3f3be006561U, 0x3d4353f4bd4558a8U,
  0xbde76d3b3b3db90eU, 0x3cf9ef833d6bd8d7U, 0x3d806403bd97e611U, 0xbc75dcb3bd2d194aU,
  0xbd77ecd3bdee3255U, 0x3d515a18bcc11487U, 0xbda00faebdae42b7U, 0x3da372253d3ac19dU,
  0xbd4a0807bddb15e3U, 0x3d8972d5bdd58d63U, 0x3da32765bde9371bU, 0x3d19fe4c3d5d9f58U,
  0xbc3c8ee03d814b22U, 0x3d87abf2bd40f553U, 0xbd84155a3cba746fU, 0xbd461c23be0bef5aU,
  0xbcab7290bc812ec3U, 0xbd8a0bb3bd923120U, 0xbdf24a913d197a40U, 0xbdcebbce3d49ac66U,
  0xbd195611bd09af56U, 0x3d866ab3be198470U, 0xbd2d53b1bd830570U, 0xbd35026e3d1a5efcU,
  0xbe069f41bdc58903U, 0x3d18b952bce2b0f9U, 0xbd39efb3bde82da2U, 0x3dd286bd3d3fc743U,
  0x3cb900153d6e3342U, 0xbd7d40d6bd11eb5eU, 0x3c9c36d03cc4888eU, 0xbba080ba3ccf0f34U,
  0x3da2853e3d8a2749U, 0xbd1c55de3d368863U, 0x3d950b913c9268cbU, 0xbd54fc63be092df2U,
  0x3d9d0971bd91047dU, 0xbdc3f296bd97017aU, 0xbe0c4353bddb2a04U, 0x3d893d33bdbcf801U,
  0x3d01aa683d86b3feU, 0x3d24b7e8bd997687U, 0x3d398b7e3d17fcfaU, 0xbd2ca82dbd358419U,
  0x3d5719163d145194U, 0x3c1569f6bd23c260U, 0x3bce55febd316413U, 0xbdbec3babdb727fbU,
  0xbdffff633d913d9cU, 0x3d3367bcbd84cbd6U, 0x3d8151e6bd9188c2U, 0xbd059165bda8b25bU,
  0xbdc53f86bcf78ccdU, 0xbc901a503d6f34ecU, 0xbdd41598bd20c1e9U, 0xbd1b0c96bde07bfaU,
  0x3d822c81bdc5acd7U, 0xbcb22a69bcbd7385U, 0xbc5532c03d20ca6eU, 0xbd61efee3d3bc885U,
  0xbdbfadf6bd934c4fU, 0x3d76082cbd4ee0a3U, 0xbd9997a43db36a53U, 0xbd9a43ccbd759af5U,
  0x3d34488bbde2a6e8U, 0xbde997273d7d8f2eU, 0xbd0a366c3dad18b2U, 0xbd7708993cef0955U,
  0x3cbfbc46bdc98735U, 0xbd9ce80dbc570827U, 0xbd9b1c57bd3f8158U, 0xbc8f9164bddf861eU,
  0x3dd774a3bda2f34cU, 0xbc10d81fbcbb2e07U, 0xbd88f7433d71cfadU, 0x3d34f89c3d020f9fU,
  0x3dc10945bc98c388U, 0xbda77f26bdb15e06U, 0x3d2e0e97bd8f3a84U, 0xbd9d6659bd5dab92U,
  0xbc19439a3d62073fU, 0xbd928c753c637e38U, 0xbe03c5f8bdcb4caaU, 0x3d952ebabd69b67bU,
  0x3d2b2610bddeb330U, 0x3dc9016b3d5273acU, 0xbcb647f53d02179cU, 0xbdf5dc163c600932U,
  0x3d94e4db3e4f6edfU, 0x3d40d4f63e41268dU, 0x3dfa0598bdbe9bbdU, 0x3ce81f123cffd604U,
  0x3bc6197cbe0828ccU, 0xbe2efad8bdb7ad5aU, 0xbcf028c1be6db4bfU, 0x3cb74388bcee1d08U,
  0x3b67207bbd55a8e6U, 0xbdaedb7cbb0faf0bU, 0xbd7692ccbe307d5cU, 0x3b9131583d5a9fb9U,
  0x3e90955b3e267872U, 0xbd2816323e0918eeU, 0xbcbba1413e57dcddU, 0x3d91fee0be152476U,
  0xbcfea09a3e24aa35U, 0x3d6db4143df7fa78U, 0x3daf808dbdd3bf6aU, 0x3d57c5ae3e00ce11U,
  0xbcb87180bdec4352U, 0xbe65f2bfba86dbc0U, 0xbd8b126cbe42ab2bU, 0x3c962d00bd5bec98U,
  0xbe2c8ed6bd7475f9U, 0xbdb2b0a43d44721cU, 0x3b8f6470be31ad3cU, 0x3ca10a9f3d9d792dU,
  0x3e8effa63c0a6bfbU, 0x3c83eb56bb880325U, 0xbd8bfd173eb5cf80U, 0x3d4408993cc88e2cU,
  0x3cf4fdd53de573d2U, 0x3db0eabc3d14ca1aU, 0xbcffcc6e3d1d49e8U, 0xbddcae2cbd30d4f9U,
  0xbddc42e0be13ecccU, 0xbe1c67493d8c1c82U, 0xbd59667abe20024eU, 0xbddd406f3c6f4e93U,
  0xbd2b212bbe3200afU, 0x3df3bdc7bded2eb8U, 0xbbbc0a4cbe98ecf0U, 0x3c94ccecbcff768cU,
  0x3c7d12f23e612bf4U, 0xbb8870903d93ee9bU, 0x3e28b5583e23699fU, 0x3da29b923cd5b813U,
  0x3e3a7e383def9430U, 0x3d89b7293d8777b3U, 0x3dbfa172bd5fdb00U, 0xbdd0c9ab3d0f5796U,
  0xbde5fa11bd41d22aU, 0xbdbfaa363c9c10a5U, 0xbcec5970bdfe3922U, 0xbde097173da09dbfU,
  0x3ce419043c8b8037U, 0xbe5058a9be1257b4U, 0xbd5187ccbdaaa7e1U, 0x3e100dfcbdadb35bU,
  0x3d25514bbe389212U, 0xbd9025d9bddc250bU, 0xbe2b3a88bc81d9f4U, 0xbd777a42bd43a218U,
  0x3dedcadb3ddd8e52U, 0xbdeb3e1fbca18f59U, 0x3ca209e83caff42eU, 0x3d440bb9bded72d3U,
  0x3ca317f3bda0fa8cU, 0xbcf250f63bf7ee8cU, 0x3daa85273d19eb1aU, 0xbe572b463d8113e2U,
  0xbd8c9e8e3d097fb0U, 0x3cce78c4be53de0eU, 0xbdb1e220bda53ce9U, 0x3d592121bdbca5f5U,
  0x3dc29e7bbe2e57c1U, 0xbdacedfdbd9f2cfbU, 0xbe3de6493dddbe3bU, 0xbd94f1a0bda751c6U,
  0x3dc2859dbdeda268U, 0xbd98843ebda18a8eU, 0xbd4d19b33d4bebb3U, 0xbda583ecbd912068U,
  0x3d9def603cb7b79dU, 0xbcaf739e3e2d630eU, 0x3da2f2c33dda10edU, 0xbde3c0463dc91c35U,
  0x3d8361ee3d4192bfU, 0x3d4126cdbe3507ffU, 0x3da278e7be3ac083U, 0xbcc5c8a43d0df05dU,
  0xbdc44610bd8df578U, 0xbe27b1ddbe8af40aU, 0xbd6448073cbd46d1U, 0xbdaba96abe721dacU,
  0x3c472faabd7fd3c4U, 0xbc3d27cc3bf9ff19U, 0x3dd962b7bd14587dU, 0x3b8b1375be7c86a9U,
  0x3d6bf7f93d8a3c4aU, 0x3dfa950d3d1a60ccU, 0x3d1ed0d33dc712b6U, 0xbdab5d8b3c973d88U,
  0x3c2031763d52954fU, 0xbdbfb7ccbce39bb3U, 0xbcab27a93c905e67U, 0xbc87ecd4bdd2309eU,
  0xbbf90cf4be3559a1U, 0xbe7b85f9bdea9958U, 0x3d137e5cbd996fc6U, 0xbd9031a5bdfd794fU,
  0xbc521abbbe2db499U, 0xbd7d40d6bde3b7bcU, 0x3d6acb3d3c8ceadbU, 0xbc62c932be9e4702U,
  0xbe1436483dce42e2U, 0x3de10c55bc93c12dU, 0xbcfb3d253d20e0e0U, 0xbd9d418bbd468f84U,
  0x3d53f5673c405ac9U, 0x3d5e59373af177f0U, 0x3dbe57eb3db1f222U, 0x3cbd94e6be00fcdcU,
  0xbd6fd912be3be3bfU, 0xbdee2c6fbe65da6bU, 0xbd81d771be1d9982U, 0xbd422e39bdf24b96U,
  0xbe065fd1be3d4ee4U, 0xbe0d034ebd97b765U, 0xbde460ccbd782b3dU, 0xbd86e1eabe887876U,
  0xbde305de3d361808U, 0x3e3440383b0ada1eU, 0x3dffe3983d234872U, 0x3d23dabe3da9345dU,
  0x3d8d90f6bb27b4bbU, 0xbcdfca15be97a692U, 0x3d717ef93db1b9bcU, 0xbdd73a39bd20a886U,
  0xbe383366be108dfbU, 0xbe33d3d3be99229dU, 0x3dae0c86be51d6deU, 0xbc672d7cbe2aa648U,
  0xbde1a127bd2440d1U, 0xbcea9eefbd3cdf05U, 0x3d9d3e63bce02f64U, 0x3d453493bcfce431U,
  0xbcb593323d82f0eeU, 0xbd7624603d66847eU, 0x3c7ff8e3bd829ee4U, 0xbd0f47c4bdd1caffU,
  0x3d735a86bdd3bcebU, 0xbbb4e4cd3c99fbcbU, 0xbceee355bd91cfa6U, 0x3d7848cdbd7daf0fU,
  0x3d8bfba4be164069U, 0xbc3b6e663db3747eU, 0xbdd16a29bdc967f6U, 0xbdea4d03bc8a723aU,
  0xbdc89b073cda9870U, 0xbdb6253fbd62b8dcU, 0x3c953dcebdb48c0eU, 0x3da7558cbd354039U,
  0xbd32341b3c5a4f21U, 0xbd1c59ebbcf82d74U, 0xbd35acb5be09b72fU, 0xbc362d233bfc0990U,
  0x3d42b2a7bde8caa3U, 0xbcc8700c3dac074aU, 0xbbb584583d24af63U, 0x3cf447ad3cd7f20eU,
  0xbbee4d11bd78b544U, 0xba28bedabd9d68d2U, 0xbde29fc33d9d7fffU, 0xbc852c58bccbcb58U,
  0xbd30de5abd6a6b72U, 0x3caeb67d3c6e159aU, 0x3da403cebbc89747U, 0xbd20ee013d799e01U,
  0xbd431b2abde2d6a1U, 0xbcf52fed3d766a0eU, 0xbdbfc163be122959U, 0xbd62e47e3d82f516U,
  0x3d94e4e6bbb7caf0U, 0xbd81db9cbcb2bde0U, 0xbdc31c9bbda7e2feU, 0x3d1444b5bd41a83dU,
  0xbd98968fbda415f3U, 0xbd1ad91bbd8ec927U, 0xbdd057843d996253U, 0xbd8cf775bcea5711U,
  0x3d9786303d250ab9U, 0xbc144eb6bd8ac929U, 0x3d819a58bd848d53U, 0xbd144cf73dcc19b7U,
  0x3e041ef73d23a29eU, 0xbd1c4085bd9c08f5U, 0xbd25a50cbdfac15dU, 0x3d95fcb33d18c0beU,
  0x3ce3de693d382a31U, 0xbcefc222bda613d3U, 0x3acf26a5bbcba1a6U, 0x3da73f85bc9722b6U,
  0xbd5771d2be03753fU, 0xbd851952bcf40e7dU, 0xbd868bbfbd8ca6aeU, 0xbd60c20bbd614945U,
  0x3d224363bd598badU, 0x3c329a01bd21b94bU, 0x3c087ae53cae1130U, 0xbd368eddbcf05a9aU,
  0x3d2ea6973d6f7260U, 0x3d5ff4d6bd56842aU, 0x3d7ab0c73d1120a8U, 0x3b87f2d2bd4cb1eaU,
  0x3b88c323bd38c93dU, 0x3daa088a3d749ab6U, 0xbd6a14953c4888e1U, 0x3af13f703d03c635U,
  0xbabf041dbd8cc21dU, 0x3d0736c4bd073d11U, 0xbd2aaaaf3ba73c54U, 0x3bf20219bdcbd883U,
  0x3d6b1bad3c8d89a0U, 0x3d534b22bdd7bd99U, 0x3cca2ebfbdea1ac0U, 0xbdc751a53df05f59U,
  0xbc962ae63c5973a3U, 0xbd5d2516bdd366e3U, 0xbd60e61e3cfb96efU, 0xbe1a17a6bc145375U,
  0xbbab42b13ce97abfU, 0xbcda9a333cc821eaU, 0x3c81635bbd6b3128U, 0xbda614b5be063e8aU,
  0x3d7547a5bdc8715cU, 0xbd47745ebde17eceU, 0xbc9bd94ebdf3acb9U, 0xbd857a36bb5b356bU,
  0xbd0138453bc15705U, 0x3cfea09dbd494c06U, 0xbdbee14dbdb031d6U, 0xbd94a575bb59e89fU,
  0xbdb0369dbd91d85fU, 0xbdb46c37bc7425ddU, 0xbced7c6fbde879abU, 0xbde1fe2e3d5d5adaU,
  0xbd353f9b3d36d440U, 0xbdb56b98bd8132d6U, 0x3caf96ffbd56d11dU, 0xbc47e75fbd4736abU,
  0xbdd6c329bd7a0ab7U, 0xbca22a753ca1f39dU, 0xbd1818bcbc069463U, 0xbdd31a65bdc36b9bU,
  0x3cf082b93ca437ecU, 0x3d7db0ffbd7e7e4eU, 0xbd8a5030bc9bdea1U, 0x3dda4f5dbdadf58dU,
  0x3ddcec343d3b04e1U, 0x3d174a473d39aa19U, 0x3d849f3fbdb80ba4U, 0x3a5956bb3c334143U,
  0xbdb7d9bdbd77ac2fU, 0xbd9c93b3bcf69020U, 0xbdfc1b38bc27f1e1U, 0x3e00ed02bce4689cU,
  0xbc0e153bbe0b0348U, 0x3cf991b9bdc377d6U, 0xbd9557cbbdc3b1faU, 0xbcfa1980be24fc7dU,
  0xbcb3fb62bcdc958dU, 0x3d81a5e4be0eabe9U, 0xbcc4f7f7bde76e89U, 0x3db62d1c3d108689U,
  0x3d1fa6d33d7203c7U, 0xbc0da29abe1c413dU, 0x3c03e9dc3d12dc59U, 0xbde65d873c164da7U,
  0xbda3f60a3d445ed7U, 0xbda557523d6a87bbU, 0xbd439e0d3c57f28bU, 0xbdcaa9f03c1ca4dfU,
  0xbc22a874bd39985fU, 0x3d721d98bc1be4f1U, 0x3d02d572bcac0bd2U, 0xbda40ce73c9bda92U,
  0x3d46a474be852f00U, 0x3d2a10ccbe097962U, 0xbd8e179d3d81b2f8U, 0xbd3ad71a3c20ac59U,
  0xbe0b3f243c0f837eU, 0xbccac0973c6df0caU, 0x3e21f9e93cff34cfU, 0x3dcf17783c81e9feU,
  0xbe00d91ebd061348U, 0x3dd7ec543e4b5830U, 0x3d824793bd370ce8U, 0x3b198c6fbe036ee8U,
  0xbe3a1d9bbcb40065U, 0x3e4b93debe6a2674U, 0x3a5e9abdbdef01f5U, 0x3d31712ebd4c3596U,
  0xbd4461fdbdab6633U, 0xbd8cb575bd99684cU, 0x3d0b59efbe0100caU, 0xbd5a44edbe40e9d4U,
  0xbd956495bda461ebU, 0xbc4443bbbe09efe8U, 0x3e36ce283d933417U, 0xbd6d4104be01fdb7U,
  0xbe091f7f3beaa4dcU, 0x3de4c9bc3e04fb97U, 0x3c96dc423d854c08U, 0x3b677db13d5d39c4U,
  0xbe3d79493d4cb439U, 0x3c88b34ebe7dc3d9U, 0xbd80298bbdf53a8aU, 0x3c4a539c3d0c8243U,
  0x3dd423873e75d81aU, 0xbcf0c9cbbe159b0aU, 0x3d339ab53d0eb2ccU, 0xbdbc41fbbe51aca3U,
  0xbe248fa0bdd10eb7U, 0x3da409523b1f14e0U, 0x3bf664a3bc77dcdaU, 0xbdb0c4693c987e76U,
  0xbd0e32e8bd9b9cd7U, 0xbaa85bf8bb616bceU, 0x3dae5775bcf64da2U, 0xbe0c98183db112adU,
  0x3d3427473c559acaU, 0x3e60a2d7be301c0fU, 0xbded79a83d074fe8U, 0x3ce6ce1e3ce3831dU,
  0xbd610615be545ba3U, 0xbd4228303da6597fU, 0xbcdc5a3c3d00920bU, 0xbd886b47be1585caU,
  0x3e1c421b3ccdb3c9U, 0xbe2b97b23d873b31U, 0xbdefa44c3c7aa555U, 0x3e2e2a803ddf9c5cU,
  0xbe432937bde411dbU, 0xbe0f36573d13be9dU, 0xbd5210eebd5c60ccU, 0x3e07cebebd53fce8U,
  0xbe45c545be03cfc4U, 0xbc981407be161f51U, 0x3d2615fdbd1d23c1U, 0x3b3707a8bdce9494U,
  0xbc922ba8be51bd46U, 0x3d9ae14dbdbae467U, 0xbbdae984bca321f9U, 0x3d25dceebd5cb1d0U,
  0x3da7454ebcf7f69bU, 0xbc2a32b9bdef97c3U, 0xbe65d5443d330817U, 0x3de7f88abda7adcbU,
  0xbda203e8bddaf11fU, 0xbe51b4383d2cf1b2U, 0xbddcbe6c3d9535eaU, 0x3dce5c67be3dc5f2U,
  0xbe3416ddbd0f4f91U, 0x3c9da48fbd8ec7f3U, 0xbc138fbbbd8e7087U, 0x3d9ba1d0bd9259d1U,
  0xbe26a8a0be4cb325U, 0xbd2827e53dfae851U, 0xbd510fd3bd85a31cU, 0x3c4b4036bb904a07U,
  0x3d7bcb6ebbfdc403U, 0xbcf93357bda4d218U, 0xbe3db30ebd8a6205U, 0xbd546a62bdac7fd6U,
  0xbd574dd8bc49b090U, 0xbe39001d3cc8b7e9U, 0x3c1c88b839b59094U, 0xbe1b87c2bdc7e7e3U,
  0xbdfa8057bc4b198bU, 0x3e3ade56bd21acf8U, 0x3d0a95bfbe045aa0U, 0xbd96f628bd06450bU,
  0x3cead945be83714dU, 0xbd170195bc2cf2a5U, 0xbd8c460cbcaa3d32U, 0x3d5d4f51be54b909U,
  0x3c8d4bd5bc0bada0U, 0xbe414bc33da7782fU, 0xbcbc1d1abd5ed495U, 0xbd139243bcfa2288U,
  0x3d26ae63bd8db35bU, 0xbcc668323e5740aaU, 0xbe6baa4ebd93add0U, 0x3d295f21bd38c519U,
  0xbe41696a3aaef006U, 0xbe256226be33e525U, 0x3d8ceb0fbe46ff88U, 0xbd8427f2be868239U,
  0xbd955dc5beba8feeU, 0xbe0fb202bca2a34bU, 0xbba8b448bc2b6756U, 0xbd635744be2b85c1U,
  0xbced93233e1e3f74U, 0xbcc31c933bae1ec4U, 0xbeca100e3a2d3414U, 0xbd1a0d073d27a143U,
  0xbde2ca84bd63c86eU, 0xbd15b9cd3e376a9fU, 0xbda4b2263e065bf5U, 0x3e03b5fdbd79c1f3U,
  0xbd80c504bddc83a2U, 0xbd9daa91bd890338U, 0xbe04dc6abe33f76bU, 0x3d05aa88be2bc55fU,
  0xbd3c3103be9a9defU, 0xbd9b4d083ca7468eU, 0x3d4e8929bd8bb02fU, 0xbc909bf3be20ef43U,
  0xbcf99beb3e0b66a7U, 0xbc507101bdb69ad9U, 0xbe35fb223dee45cfU, 0x3e087c3f3d2a2987U,
  0xbe03fe22be022897U, 0xbde9e5b83e4e6df0U, 0xbe1ca4e93dba6ed9U, 0x3e001ba1be31f77fU,
  0xbe263f99be005f68U, 0x3d613b28bc79f0e7U, 0x3da4fe6dbe6be080U, 0xbd541cdebe1f53e2U,
  0x3c82c4f23e031fc6U, 0x3d8bb809bd507cb6U, 0x3b21e8df3c82bd39U, 0x3de3ed2d3dec83b7U,
  0xbdcb6d443b4718f6U, 0x3cf9de93bec5897cU, 0x3dfa06893d29163bU, 0xbd937c7fbdc44276U,
  0xbe620439bc69c8d4U, 0x3e25c3d73bde54ecU, 0x3d60deab3d9e1376U, 0xbe74c91a3da5fa18U,
  0xbe2726ffbdae0a12U, 0x3dc1ab43bd769f98U, 0xbda481313e124c9dU, 0xbc9586753e1b0516U,
  0xbdcaf190be30a6c7U, 0x3d9277ecbcd2e91eU, 0x3e1e4917bd0d1025U, 0xbcf4dc713dd48eebU,
  0xbe3e2f913d0637d5U, 0x3e00bb073e1d9c23U, 0xbdf57fc2bd17cf06U, 0x3d9ed9df3e15cfd4U,
  0xbe3c92a23c805c15U, 0x3da7d70bbd9e0603U, 0xbe6886253d803f6eU, 0x3e3e8801bdc03695U,
  0xbc7bbf2e3e00113dU, 0xbe0154743d0f58c6U, 0x3c7f5deb3d521444U, 0xbcae0b5cbd6d365bU,
  0xbdd11e2e3d3651e3U, 0x3d061918bd0d3d14U, 0x3ddd1ad3bd204348U, 0xbdfa3d49bd8ea04aU,
  0xbcdc55b5bda2d66eU, 0xbe5d2658bd875be5U, 0x3de65914bc8f671aU, 0xbc1eeaa4be1158f0U,
  0x3c4094293d7410feU, 0xbe0c1228bc4023e3U, 0x3e0e8be23d8766f1U, 0xbc9ceaffbe8301c6U,
  0x3c27b543bd134122U, 0xbdaa943fbd82a6cbU, 0x3c8678f03bbd7388U, 0x3d3cc5efbdcf9870U,
  0xbdb41b823c81f6d1U, 0x3e1a2f77bdd241aeU, 0xbcd07a893db8b65aU, 0xbd7b01ccbcf18ba2U,
  0x3c331d893c89f32bU, 0x3d01e0b2be4e328bU, 0xbc79a02d3d63c55bU, 0xbe4c7e44bd597697U,
  0xbe8deed53d7d2deaU, 0x3e736ca4bd77feb6U, 0x3ddfeab43d080034U, 0xbe8f59433e1b7c88U,
  0xbe7d7ca9bca4632cU, 0x3c98973cbde25c05U, 0x3b3be3b33e4ad3a6U, 0xbbc12f38bc1a7413U,
  0xbdbdf73ebe0003caU, 0xbe3030033c44c3c6U, 0x3e2269db3bccb8d8U, 0x3d760f63bd1668baU,
  0xbe18b4d2bcbcc43bU, 0x3d09594e3d35a70eU, 0xbe65122ebdc956cfU, 0x3e4912f33e689386U,
